04
04
ff
05
ff
01
fd
03
05
fc
05
01
04
01
03
ff
04
01
fe
01
fe
ff
fe
03
fc
fe
ff
fd
00
fb
05
fc
04
01
00
07
03
06
02
01
05
01
04
08
03
fe
04
03
04
ff
fc
fe
fc
04
01
02
02
00
04
fc
00
fd
04
04
07
03
0b
04
06
07
0f
0d
11
04
03
05
04
09
08
07
fd
fc
03
fe
03
ff
03
fc
fe
03
06
06
0d
0d
06
03
0f
09
ff
05
06
02
06
04
07
05
04
05
fe
fc
05
01
02
fb
fd
fe
01
fe
02
03
0f
0d
15
09
0e
13
1b
16
25
12
0e
13
0b
11
00
fb
f7
fa
03
ff
02
fc
04
fc
00
00
03
08
02
f7
fa
f4
ff
fd
0d
08
11
0e
0a
0f
1f
1a
0c
fd
06
02
ff
05
01
fd
fc
ff
03
fb
f7
fb
fb
fc
fe
f9
02
f4
f6
ff
fb
ff
ff
0b
09
04
08
0b
10
12
02
00
00
00
ff
fe
fc
fa
fc
0a
06
00
03
f6
f9
f1
01
05
f8
f6
fd
06
01
03
0e
05
03
0b
01
00
fb
03
02
01
ff
f9
ff
0b
00
07
0d
fe
01
09
fe
ff
05
03
f4
f9
fc
fe
ff
fc
02
07
04
fe
ff
fd
fd
fb
08
fa
09
0c
10
03
05
f8
fc
0b
0e
08
f9
ec
e9
e8
fe
0b
02
fd
fd
08
08
fa
ff
fd
fe
fc
05
ff
00
0e
11
00
04
fd
ff
13
20
0e
f3
e9
ea
f6
01
fd
f5
00
00
07
01
01
fe
00
05
03
02
0f
07
07
ff
03
f3
f4
ff
24
35
17
fa
eb
f0
f7
f6
f8
02
0e
0d
06
09
fd
ff
02
fd
00
ff
08
fa
fb
ef
f8
ed
ed
03
29
34
21
0c
06
f4
f9
00
03
fd
12
08
02
fd
00
02
01
01
fc
f0
f8
f9
f2
f5
f6
dd
f2
0e
2c
2e
20
0f
fd
03
08
09
01
f7
00
fe
fc
fe
fe
04
03
02
fd
e9
e6
f1
e5
f5
fd
fc
05
15
2a
2f
1d
04
fc
fa
00
fd
fb
f4
f0
f2
fe
f9
fd
00
fe
fd
02
f2
e3
f6
f3
fe
05
03
19
26
40
37
0d
fb
eb
fc
01
ec
f3
ea
f1
fd
fc
f6
04
04
fc
01
fe
f1
ed
fa
f8
fe
16
18
26
24
2c
25
fa
f4
e7
fa
f7
e9
f0
f8
03
06
fd
f9
02
fd
fd
00
09
03
f2
f4
fb
fb
07
1c
20
1b
19
13
f9
f7
f1
f9
00
f6
fd
ff
06
fe
f5
fe
03
04
02
fd
07
03
00
f8
ed
f7
ff
01
00
11
07
06
00
f7
00
fe
01
0d
02
09
12
07
03
01
fe
ff
05
03
03
fd
05
03
fe
f6
07
01
f4
00
08
08
11
13
0b
0f
17
12
14
17
17
07
02
01
05
04
04
00
fc
fb
00
13
14
05
0c
07
f9
ff
05
11
10
0b
19
24
22
2b
19
16
17
ff
00
fc
00
00
01
03
08
04
11
1d
18
10
0a
0b
06
00
15
19
16
0b
1b
1f
20
26
1b
14
02
f8
04
01
00
01
fc
fe
09
0b
15
0f
0b
01
05
ff
07
fd
0c
0a
13
0b
17
16
18
11
09
f9
fb
ff
fc
05
03
fb
fe
02
01
04
04
02
f3
02
01
fa
01
11
13
0a
18
0d
10
0c
16
0b
fd
fb
ff
00
fd
00
02
05
03
fd
05
f8
f1
ed
f1
fe
08
02
10
12
13
08
07
01
fc
07
0c
fe
fb
f8
ff
03
04
fd
05
03
fe
fe
fb
f9
eb
f2
f3
f0
f5
f8
00
07
f4
00
03
05
00
ff
fe
f8
fc
ff
04
ff
02
02
fc
fb
fd
04
fb
fa
ff
fc
fe
f3
ef
f3
f4
ee
e9
e5
f0
ef
f1
f7
f4
f7
ff
00
02
fe
00
05
fd
00
02
fc
05
fd
ff
ff
fc
fb
03
00
fa
fc
04
00
01
fc
fd
fd
fe
fb
00
00
ff
01
fe
01
02
fd
fb
03
01
fd
05
fe
04
03
fc
03
fb
fd
ff
fd
05
ff
02
fb
03
fe
fc
01
03
04
fd
fd
01
01
02
03
ff
03
04
fe
02
01
04
fc
fd
fe
00
02
fc
05
ff
02
fe
fa
fc
fc
02
fd
00
01
fd
01
fb
fc
fb
fe
fe
00
fc
00
05
02
fd
fb
02
fb
02
02
01
fe
fc
fb
f8
00
fc
ff
05
04
02
00
fc
ff
05
01
01
fd
fd
04
08
11
16
14
11
0f
09
0d
10
fe
f1
ec
f3
f6
fc
00
00
04
02
fe
fe
ff
fe
06
06
0c
0c
15
1d
18
1d
21
16
13
11
16
11
0c
fd
fa
f2
f5
f0
f5
02
fe
01
05
fe
ff
05
05
08
11
0b
05
04
0b
13
16
15
16
17
1e
17
12
13
0c
09
fb
f3
f5
02
fc
fe
04
03
03
fd
06
04
07
ff
f4
fd
f5
f0
f9
11
0b
09
09
02
07
03
07
11
12
00
f1
fa
00
05
01
fe
01
05
0e
0c
fd
f2
f8
f7
ed
f0
f7
07
00
fe
f4
fa
04
01
06
15
18
0a
fc
f6
fb
fe
fe
fd
ff
fd
0d
06
fd
f9
f0
ff
01
f3
f1
02
fa
fe
04
02
0d
1a
18
19
1a
07
f3
ed
ff
05
02
fb
fd
ff
02
07
fd
f8
f4
fd
fe
eb
f4
fd
fc
fc
fe
04
1e
29
2b
14
10
09
e1
e5
fe
03
fc
01
f7
00
fd
00
02
f9
f7
fb
f8
f8
f5
f0
de
d3
e5
0b
22
1d
15
09
0a
07
e1
dc
f8
02
fb
01
fe
fc
f3
03
f9
fb
fd
08
fe
fe
ef
dd
d8
d6
e0
fe
07
18
10
08
07
03
f8
f4
ff
01
fd
fb
fc
f6
fb
f1
f6
02
01
0e
f9
fa
f4
e3
e4
d7
e4
f5
ff
21
17
11
15
10
19
03
fd
fb
03
01
f8
01
fe
fa
fd
02
0f
0c
fa
fe
fa
fc
f6
ef
e1
f5
0d
1b
0c
0d
14
16
18
12
0f
05
03
02
01
00
09
0a
09
0c
0a
ff
f3
02
06
0c
ff
ef
f3
01
10
0c
02
07
ff
fc
0a
13
09
05
fe
fc
02
07
18
1f
10
08
11
0a
02
13
18
14
0a
fb
01
08
01
0c
ff
f2
03
00
0b
11
10
02
01
02
06
0a
16
18
10
15
06
14
1a
1d
23
14
03
ff
15
1c
0a
ff
fd
fd
00
06
05
1e
0f
fe
01
04
00
08
1b
14
0c
1f
1b
19
1a
14
0f
0b
f2
01
1d
19
f8
f9
ec
fb
02
fb
fc
18
0a
fc
01
02
06
10
1b
14
21
27
19
12
0c
04
01
03
fb
0e
16
10
02
f8
ee
00
06
09
03
0a
06
fe
fe
00
fb
0e
13
1e
1b
28
15
0d
0f
02
f8
07
02
10
17
10
fe
f9
f2
04
09
fa
fa
02
04
01
00
fd
00
14
17
18
1a
20
0e
07
07
ff
fa
03
02
0d
04
ff
02
fd
06
0e
fc
fc
03
04
02
05
fe
fb
08
12
17
09
0a
06
fe
f8
ff
00
0d
10
04
0b
06
05
09
0f
03
01
07
08
01
00
fd
fc
fe
fb
02
0b
03
f9
02
fc
f9
fd
0b
1f
19
23
12
12
06
0d
15
14
0d
17
12
01
02
fb
fe
fe
fe
fe
06
08
fc
f4
eb
01
0e
09
08
24
17
2b
20
15
0e
18
2d
1f
13
19
11
03
03
04
ff
fc
01
02
04
fd
f3
eb
ef
ee
f8
f7
0b
13
14
15
19
18
1b
11
0c
10
0d
0d
09
04
01
05
fd
fd
ff
fe
02
01
f8
fe
fa
f7
f3
ec
fd
f5
f0
f8
fe
00
f9
f2
f7
f9
03
f8
ff
fe
fe
02
fe
04
02
03
01
03
05
06
08
00
01
fc
fe
fd
f9
ef
f2
ef
f0
f2
f8
fc
fb
ff
fe
fd
01
fe
fd
fe
fe
05
02
05
01
01
02
01
fb
fd
fc
ff
02
00
02
ff
fb
fa
fb
fc
01
03
04
fe
00
fe
00
02
00
00
01
02
fe
fd
01
ff
fe
02
00
ff
fd
ff
fc
01
00
03
00
00
01
04
fe
03
01
fd
02
fd
fe
fe
fc
04
fb
03
fb
ff
01
04
fe
02
00
03
01
03
02
ff
04
fb
ff
ff
05
ff
fc
ff
03
02
04
ff
02
fb
02
02
03
fc
00
04
fe
fb
fe
04
06
03
03
02
f5
f7
f7
f7
00
fa
00
fc
00
fe
02
fd
03
fc
03
fb
03
ff
08
10
17
18
18
1f
1b
1b
17
0e
ff
fb
f8
f6
f7
f9
fd
fc
04
fe
fe
ff
04
04
00
03
04
12
13
22
1d
28
31
32
26
29
26
20
18
00
f3
f2
f4
f0
fe
01
04
fe
00
04
03
07
02
09
10
0f
14
13
26
22
1e
24
16
1b
29
20
1b
01
00
fc
f8
f3
f8
fd
ff
00
01
fe
fd
07
06
07
0b
11
11
11
1f
1b
15
19
1f
1e
16
12
15
ff
f6
fb
fc
fb
f8
f8
fa
fd
fb
ff
02
05
0b
0c
10
06
05
04
10
0c
05
0f
19
0a
15
03
06
06
f7
01
0b
fe
f3
f9
ff
fa
fc
05
fe
ff
07
02
02
fd
f8
f3
fb
e4
ec
ed
06
0c
15
13
0f
0f
0d
0e
14
10
00
02
ff
05
fc
03
01
04
07
ff
f7
e8
e9
eb
df
cf
d8
d5
e4
f6
0e
21
21
11
17
10
19
13
01
0b
05
01
04
fc
04
00
fa
f2
ea
e0
de
d2
d7
df
d7
c7
da
e6
fd
19
11
13
1f
19
17
11
08
0b
fe
01
fc
02
01
fe
f0
de
e0
d8
d9
d3
e1
ed
e7
dd
df
e2
e8
fa
06
19
1f
0f
0d
f4
ff
00
ff
01
04
03
fb
fb
ec
dc
cf
e2
f0
f5
05
04
08
ed
ec
e4
e9
f1
01
1a
21
05
f2
de
f7
04
fc
ff
fc
02
fb
fa
f8
de
e5
fd
07
0b
13
0c
10
08
fa
ea
f4
f9
fd
09
0d
01
e4
d8
e9
ff
03
01
01
01
fe
ff
fc
f3
fd
12
08
0d
0a
00
f7
fe
0a
03
f3
f7
fa
00
fd
f5
e0
dc
f2
fb
ff
ff
ff
00
00
07
0e
0d
07
02
f8
02
fa
f1
e9
fb
01
06
03
f0
f0
f0
e6
e7
de
e7
f2
f9
04
fb
04
fe
00
0d
14
13
06
ec
eb
f7
f3
e5
f5
00
03
03
03
ff
ef
e5
e7
e9
ed
f2
fc
03
05
ff
02
00
03
12
1b
15
fe
ed
ee
eb
e8
ea
f0
f5
f5
03
08
fc
ee
e4
e9
ea
f2
ed
ff
11
03
04
fb
04
00
0f
1e
17
07
03
ff
ff
fa
f6
f4
f8
04
0e
13
00
fb
ff
f7
fe
fc
07
11
11
04
fd
04
00
00
0d
16
12
05
12
0d
0a
08
fd
08
1e
16
18
17
18
09
02
02
01
03
10
13
0f
09
fc
04
03
06
14
16
13
07
10
12
0a
08
0f
11
0d
0e
1c
1f
1c
15
03
09
0a
12
16
14
07
08
04
04
04
03
10
12
0a
08
02
fe
01
07
0b
09
0e
0d
09
0d
0e
16
15
0e
17
18
23
10
08
01
fb
01
02
02
10
0b
06
0c
08
0d
0f
11
0c
07
04
0a
0f
0d
0f
15
16
16
14
1b
1c
0e
03
00
01
ff
04
fd
08
05
03
03
0e
14
23
20
25
19
0f
0f
11
10
12
13
09
0d
0f
17
0c
0f
07
fc
fb
00
ff
01
fe
02
f2
f3
f0
fe
05
fe
09
17
17
21
15
12
1b
15
00
fc
08
0e
04
09
01
ff
fb
04
05
00
02
01
fa
fb
f2
f8
f9
fb
f5
fd
03
f8
fd
02
ff
02
f8
f8
fe
02
ff
fc
fe
01
03
03
fe
fb
fb
fd
fc
f8
f7
fc
f7
f7
f3
fc
fe
fa
fd
02
03
ff
fb
fc
fb
00
fb
ff
fe
05
04
03
00
fe
01
fc
fe
ff
ff
fb
02
04
fd
01
ff
ff
00
05
01
fd
fe
02
02
00
ff
fe
fe
fd
01
01
04
ff
00
03
02
01
02
00
fc
00
ff
05
05
01
05
fd
05
04
00
fc
fe
ff
00
fb
01
fe
ff
fd
ff
fb
fd
00
03
05
fc
02
fd
fc
00
fd
fc
fb
fd
04
03
fe
fd
fc
fd
fe
03
02
fe
04
fd
fc
01
fd
01
04
fe
fc
02
fb
04
fd
02
fc
fc
00
02
05
07
04
03
03
00
01
fb
fc
04
fd
04
01
01
05
fd
ff
01
02
fb
01
f9
fb
fe
fc
fa
ff
08
04
06
08
05
0c
0a
06
fb
05
00
04
05
01
fe
05
fe
05
fc
01
fe
fe
02
03
07
0b
05
00
07
fe
01
0e
03
fc
09
0b
09
09
03
fe
05
01
fe
fe
00
05
06
04
fd
fd
f9
03
0e
09
0a
00
04
05
07
fe
02
02
ff
0a
0b
0d
0c
06
ff
04
fc
fd
05
04
07
fe
f9
02
00
fd
ff
01
08
0a
ff
05
09
0f
09
14
12
0c
15
19
0e
00
00
fb
03
03
fd
0a
05
fb
fc
06
fc
fe
01
fa
fe
11
05
10
16
16
1a
1a
13
0a
0d
15
16
07
fd
00
fb
fb
ff
05
08
04
fb
06
05
01
fe
03
fe
04
05
11
0d
10
09
0d
0e
0c
06
0e
11
07
04
fe
04
fe
ff
09
04
06
04
0c
fc
fb
fa
fd
04
f7
ea
e8
e2
e3
e1
ea
00
fd
02
08
0b
06
00
03
05
fc
01
0c
04
fe
fd
02
f7
ef
f3
f7
fd
ee
db
db
d8
d7
d3
db
df
de
da
f3
00
02
ff
fd
fe
fb
ff
09
f8
f5
f2
f1
ef
f4
f6
f7
01
f8
f2
f4
f1
f5
e2
e3
db
d4
d5
e7
03
fd
00
fc
01
03
03
07
fa
fc
f0
f5
fa
0f
0b
15
10
0b
07
fe
fe
00
f0
f6
e7
da
d1
e8
01
05
02
04
05
00
01
01
06
fb
f8
f8
04
12
09
15
10
14
0a
04
02
fe
f9
00
fb
e6
e1
ed
f8
fe
02
03
02
fa
02
fb
f9
fd
fd
09
0f
14
01
0f
05
10
04
00
fa
f2
ff
02
01
f4
f1
ef
fa
fc
01
fb
fe
01
00
f1
e8
e3
e1
ef
03
15
14
1d
0f
03
00
fb
fb
ff
fe
0a
0e
0b
fe
ff
00
04
01
03
05
06
fe
f1
d6
ca
c4
c9
e2
fc
05
08
07
01
f4
fc
03
0a
0b
05
0a
10
03
fe
fd
ff
ff
05
fd
04
04
f4
db
c3
bf
ad
99
a3
b8
c4
d0
e1
f3
f3
02
11
0a
02
14
06
01
f6
f8
00
02
01
fc
ff
0f
02
db
d7
cb
b3
9c
8e
81
91
b1
df
fc
03
09
02
09
09
16
0e
00
f5
f9
fa
fc
fd
05
06
10
0c
f5
ea
dd
e3
d6
c9
cf
d5
e3
f0
f7
00
fe
ff
00
07
10
05
05
ff
02
fd
02
00
fd
ff
14
10
07
fb
fc
0a
0e
0a
12
00
04
03
04
00
ff
fe
02
07
05
00
f8
01
ff
fd
fd
fc
04
fc
10
19
06
04
10
19
17
1d
1b
29
1e
11
09
f4
f0
fb
01
05
fd
02
03
f8
f9
ff
fb
fc
fe
04
04
12
08
fe
07
14
19
24
27
26
1c
15
11
fd
04
fe
04
09
f9
fe
02
fc
fc
02
fc
fd
04
fd
0b
1c
1e
1b
15
1f
21
27
29
17
0d
0e
11
0c
0c
06
03
06
04
03
02
fb
fc
04
fd
01
ff
02
06
0a
12
25
2b
2e
24
29
12
12
13
0c
06
06
08
fc
fb
fb
07
08
01
fe
fb
02
04
04
00
02
06
05
06
0b
1a
1c
17
10
0c
0c
0b
06
fe
05
00
fc
02
ff
03
03
fd
00
03
ff
fd
00
01
ff
fc
fe
01
04
05
00
03
04
fc
fd
01
ff
ff
f9
01
fa
03
03
05
fd
fe
02
04
ff
05
ff
fd
fe
00
ff
03
fd
ff
fb
04
ff
fc
ff
ff
01
ff
03
fe
fe
fe
01
04
00
04
04
fd
00
fe
02
fe
02
00
fd
fd
fb
fd
01
00
04
fb
ff
fb
00
02
fb
05
fe
05
ff
03
05
fe
ff
03
fc
03
fd
05
fd
fe
04
fe
02
ff
01
f9
fd
fc
fd
f9
00
fd
fa
fa
01
fb
02
ff
00
ff
ff
fe
fc
03
fd
03
fe
03
04
fd
01
f9
f2
f7
f4
f5
e9
f5
f8
fa
f8
f8
00
fe
f7
f7
fe
00
02
04
fd
ff
fe
03
01
fc
ff
fa
f5
f8
e9
ea
e4
e0
df
e6
ef
f7
fa
ff
f6
fe
fa
fb
f7
f7
fd
01
fc
fd
04
01
01
fd
fe
fd
f7
fc
f5
f6
f4
01
07
01
02
f8
fb
fc
fd
02
ff
fb
f5
01
00
ff
fa
fb
fc
02
fe
01
f9
fb
fd
00
02
14
16
18
0e
f5
f9
ee
fa
f9
f2
f2
f0
f7
f7
fd
fd
fd
00
fc
ff
00
fd
fd
fb
03
05
03
12
14
02
f6
f7
f4
f8
ef
eb
e8
de
ea
e5
ea
fa
08
0f
01
09
fc
ff
fe
fd
ff
fa
02
04
0e
18
12
05
ee
e4
f6
fb
fc
f5
f2
fc
f1
f2
03
0a
18
10
0d
0b
fd
01
fb
02
ff
f2
0c
0d
0d
12
12
ff
f1
ea
f2
04
13
0e
10
0e
03
0e
0f
0e
21
1f
17
07
01
fc
fc
fe
fa
f9
08
0e
0b
0c
07
05
00
e3
f0
fc
0b
23
27
23
18
14
10
07
19
20
16
07
00
01
fd
fd
f7
06
0b
0b
0c
15
1b
17
fe
f7
e5
ee
08
19
19
1c
14
09
07
09
0d
23
15
06
00
01
04
fe
fa
f7
ff
0f
05
0d
1a
1b
11
f9
db
d7
ee
f9
fa
01
08
fb
f3
f8
03
0f
12
10
02
fc
ff
00
fc
f2
01
00
08
12
0d
23
24
1e
f0
ca
de
e4
ed
00
0b
09
fe
00
f4
00
01
02
00
fb
ff
fa
ff
f5
08
03
09
0d
15
17
36
2a
fa
e2
df
e2
f4
11
09
0d
0b
0a
fa
f1
fa
05
00
ff
fe
fb
fb
07
10
06
0f
0a
09
1f
25
21
01
ef
e7
f1
11
16
0c
06
01
07
04
fc
f4
fa
01
fd
00
fe
01
0c
06
02
0f
0a
16
17
1e
17
0a
f3
ea
01
0d
0c
05
f1
f4
fb
0d
01
f3
04
05
fc
00
fb
ff
01
09
ff
f4
03
08
00
fb
0d
0f
00
05
0a
0c
07
f7
00
02
01
0a
00
fa
fd
fd
fe
02
ff
01
09
14
04
f9
f5
05
fe
ff
08
0b
04
f9
04
06
06
ee
fe
fd
01
07
0d
ff
03
03
01
02
fc
fd
07
1a
07
fc
fd
f9
f4
04
19
0c
fe
f3
f9
e7
f8
f4
fd
f0
f0
04
06
f9
ff
fe
03
03
fb
fc
06
09
08
01
fa
ef
f0
f8
03
00
fa
fc
eb
ec
fb
f8
f6
f5
fb
04
04
f9
01
05
fb
fe
fe
f9
f8
04
fc
f8
fd
f9
03
05
0f
07
f5
fb
f4
fa
f4
f2
f7
06
0c
0d
08
fd
05
03
ff
04
ff
00
f5
fb
f2
f2
fd
fe
f6
04
04
f9
f8
fd
f1
ee
f5
fb
0a
14
13
11
05
05
04
fc
fc
fe
fc
00
f8
f2
f6
01
fb
f9
02
0e
08
fd
fa
f7
ff
f8
fe
0c
04
14
0f
0e
09
04
05
fc
ff
02
03
fd
ff
f1
f2
f4
fe
fe
07
11
15
09
05
fd
0f
02
03
0a
10
07
04
fd
02
fd
fc
fd
04
03
03
03
f8
f2
ed
eb
f0
fb
fc
0d
0d
0d
0e
0b
04
03
06
0b
01
fb
03
02
02
01
03
fe
fd
02
01
01
fb
f9
f4
e8
de
e5
e6
ef
e6
f5
fa
11
09
03
f3
ee
ec
ef
fe
03
00
02
02
05
00
00
00
01
fc
fb
f4
f2
ee
f1
e7
ed
ee
ee
e0
e3
ee
e3
ea
f6
f8
f6
f9
02
04
fd
ff
fd
02
01
03
fe
fb
fe
fc
fe
01
fb
fe
fa
fb
fb
f9
fb
ff
01
01
ff
fe
fd
01
fd
04
fb
fc
01
fe
01
05
02
05
fe
fe
ff
ff
fe
00
05
fd
02
02
03
01
fe
02
fe
fd
05
04
fc
04
01
01
05
00
fe
03
ff
ff
fe
02
fe
fb
fd
fd
f7
fa
f6
fe
fb
fb
02
ff
ff
f9
fe
00
02
fe
ff
fc
03
03
02
03
03
04
02
ff
f9
f2
f7
f2
e9
e9
e8
ec
f6
f9
f9
f7
f3
f7
f5
f6
f9
04
01
fd
01
fb
00
04
00
01
fa
f9
f5
e8
e8
eb
e5
e0
d2
e6
e5
f0
fc
f5
fc
f1
fa
f9
fa
fb
02
fd
01
04
fc
fe
02
01
00
00
f2
e9
e1
cf
cd
cb
cf
cd
db
e0
f3
fc
fb
f8
fe
fd
03
06
fc
ff
01
02
05
02
03
05
03
09
fe
04
fa
df
e6
d9
d8
d9
d8
ea
ed
f2
ee
f6
f1
f7
fb
03
f8
fd
fd
fd
ff
fc
0a
09
11
0e
0f
10
1c
05
fa
fc
08
04
01
f9
fc
fa
f3
01
fe
ef
f7
f2
f9
ff
03
02
04
03
09
16
0e
11
11
17
0d
04
0c
1a
27
12
05
fe
05
fb
00
0a
02
fa
ef
f4
f8
07
01
ff
ff
05
0d
0f
0c
10
14
11
0c
0f
21
23
1a
19
15
06
f8
07
00
09
0b
06
f6
f5
f8
ff
fe
fb
fe
ff
0b
0e
12
0c
16
12
1a
1f
26
33
2d
29
22
18
07
10
15
10
0c
10
fd
e9
f9
fd
fd
fe
02
02
07
09
0a
0b
12
09
14
12
16
1c
14
03
10
0e
fa
02
12
0e
0c
0e
f3
e6
fa
04
01
00
fb
08
08
12
05
09
0b
10
0d
0c
01
03
e7
e3
0a
05
f6
00
03
15
03
09
ef
e7
02
01
fe
03
04
02
0c
11
fe
f7
01
0e
06
00
f8
e4
db
eb
03
03
ef
fc
05
0b
f9
03
f3
ef
04
05
00
03
00
01
09
10
03
fa
04
01
fc
05
fc
f5
fb
03
05
0a
fb
03
06
0c
08
fb
ef
f8
09
08
02
fe
03
fc
04
10
04
03
09
0a
08
0e
0c
0b
0f
0c
14
11
0f
0e
14
12
05
fd
fa
f7
07
04
01
02
05
03
08
14
0c
07
0f
10
1a
1b
20
1e
13
10
21
11
24
19
1b
10
0d
15
07
fa
00
0d
01
fd
ff
fd
03
07
06
0e
1c
24
18
12
12
2e
24
15
20
12
1c
1e
18
13
1d
16
05
03
01
07
04
05
05
00
06
07
02
02
12
0c
08
03
12
21
2c
13
17
08
0f
17
01
12
12
0b
03
fa
07
01
04
01
fe
01
05
0b
03
f4
fe
ee
e9
e4
f6
f9
fe
06
01
01
0b
02
02
0d
0b
01
f8
f6
01
fd
02
fc
fb
fe
07
0b
01
ee
ef
e6
da
cf
d4
cd
da
e4
ea
fd
fb
fb
f9
fb
fd
ef
eb
f8
00
00
01
ff
fa
04
0e
04
ed
e3
d4
d6
dc
ce
c7
c5
d8
e4
e3
ef
e9
ea
f4
f8
fe
f5
f4
02
02
ff
01
fb
02
00
04
fe
ee
d9
ce
e0
df
e0
e4
e4
e5
da
e4
f5
e5
ea
f5
f4
f9
f0
ff
05
04
03
02
03
fd
fd
05
02
f5
ed
ea
f8
ec
fb
f7
fd
ea
eb
e3
ee
ec
e7
f2
f4
f5
f8
f9
fd
01
01
fd
05
01
02
ff
0a
03
0d
09
fc
f0
fe
ff
ef
e9
ee
e8
ec
ef
f7
f6
02
ff
00
fe
00
01
04
02
fc
fe
ff
fd
0f
1c
20
1a
0c
fd
01
05
e8
ec
f0
f7
06
05
fc
fc
06
13
0c
02
fc
fc
ff
fd
04
fc
03
01
07
16
18
18
19
1e
21
20
14
16
0e
13
11
08
04
08
05
09
04
fa
00
02
fd
05
04
04
00
fd
fe
04
04
0b
0f
12
0f
12
15
18
17
13
0f
0a
11
09
03
03
ff
04
03
02
00
01
05
02
fd
02
fe
00
fd
00
00
fd
05
05
fc
04
ff
01
04
02
04
00
06
ff
03
01
04
01
03
01
03
00
02
05
fe
fe
04
02
fb
02
fb
fd
02
03
ff
04
05
04
fb
fe
00
04
ff
01
03
fd
fd
05
00
04
fb
fe
04
ff
02
fc
05
fd
00
fd
ff
fc
fb
00
ff
05
00
04
ff
02
05
fc
fe
04
ff
ff
00
fd
00
fe
02
ff
fe
fe
00
00
f8
f8
f7
fe
fe
f6
01
02
fd
fe
01
03
02
ff
fd
fe
00
00
04
fb
00
ff
01
04
fe
fc
fc
f5
f3
fc
f8
00
00
0b
10
0e
0d
06
03
02
f8
02
fe
01
03
00
05
fe
fd
05
fc
02
00
fd
fa
fd
f6
fd
fc
fb
06
18
10
10
17
09
02
03
fb
f8
05
fe
05
fc
01
02
ff
05
f9
fa
fb
00
fe
f8
f5
f8
ed
fd
00
ff
f6
f7
f5
f4
f9
f9
f9
f1
f7
05
03
04
02
00
fd
fb
01
07
01
ff
fb
eb
ee
ea
e8
f0
e9
db
d5
e1
ee
f5
f5
fe
08
fd
0a
0b
04
fe
fd
fd
ff
02
fd
fe
09
01
f4
e6
f1
f0
f5
e9
eb
de
ed
fe
08
03
06
fc
0a
14
0e
04
02
04
05
fd
01
00
fa
08
02
fe
f4
ed
e5
ec
01
03
0d
15
27
25
27
10
1e
14
1c
20
22
16
01
03
05
04
02
06
09
0d
07
ff
f6
f5
fc
08
0f
1c
22
27
33
2d
1c
17
17
1a
1e
2b
32
27
05
fe
fb
06
0c
07
14
09
02
01
01
12
16
1b
14
32
36
36
30
18
1f
0f
1f
23
2c
36
39
23
13
fe
01
06
09
0f
0c
fb
07
04
07
09
08
0f
0d
2c
31
26
0d
0f
13
0f
13
0e
15
2c
22
1b
05
fe
fe
07
07
0e
04
0b
09
0c
02
09
07
f6
f6
03
10
00
e8
fb
fd
f5
f3
f4
f8
0d
06
05
06
fe
04
01
05
fe
fe
08
05
03
06
09
04
f3
f7
f6
f9
e0
e2
e5
ec
f2
ee
e9
f8
fc
08
01
fe
04
fd
fe
07
00
fa
0a
03
fa
fa
00
01
f7
fa
fb
f7
f1
e8
f4
fa
ed
ef
f9
fd
0e
0a
f4
f8
ff
04
fd
02
00
ff
10
09
fa
ee
f3
fa
f7
f9
f1
eb
ed
f1
f9
09
ec
ee
ec
01
12
12
f7
01
fc
01
01
01
05
0b
1a
0f
fc
f8
f0
f9
f5
f4
ee
e3
ec
ff
02
02
f1
e3
dc
f5
0a
0c
f2
00
fb
01
01
02
03
0e
1c
16
06
fa
fb
f8
f7
e6
f1
ed
fb
0e
17
fc
f0
dc
e0
fa
08
05
ef
fc
ff
fb
ff
04
fe
0d
12
1a
1c
1c
04
f8
f4
ed
e9
f8
01
05
0e
fa
e7
e4
e6
fe
04
f8
f6
fc
01
02
05
00
fb
06
11
15
12
1a
0f
ff
f2
f9
fd
fe
07
00
00
fb
ef
e8
ef
00
fc
00
f6
fb
fb
fc
02
03
f5
fb
0d
0d
05
17
11
0e
03
07
00
00
01
ef
fb
f0
f0
e0
ee
02
fd
f7
00
fb
01
05
01
fb
fb
fa
01
08
04
00
06
0d
12
14
06
ff
02
f2
ed
f4
ee
f2
f5
f8
ef
f6
f8
fe
02
04
fb
fe
00
f4
fd
fc
fa
fc
03
08
06
13
04
0a
07
f5
fb
ff
f9
f0
e9
ec
f4
fc
02
06
fe
04
04
01
fb
fe
01
fe
f7
f7
02
07
08
06
f6
fe
ff
04
09
f6
f3
ef
eb
f5
f8
02
04
04
fb
fd
00
00
03
09
07
f6
f6
ff
04
0f
0a
11
11
0e
11
07
0a
0a
00
f4
f4
f9
f8
ff
00
04
ff
fc
fe
fe
02
ff
06
02
02
0b
04
07
08
0f
02
04
0e
1c
10
0f
0b
ff
ff
fe
fb
00
ff
03
02
00
ff
ff
fc
02
02
f7
fa
fd
00
04
08
0d
0d
07
0b
15
10
09
08
06
04
01
05
fc
ff
04
fd
fe
fe
fe
05
03
fb
fd
01
ff
fe
fe
06
04
05
02
fd
02
05
01
06
01
00
03
03
fc
02
fb
ff
fe
04
fb
02
fb
02
01
fe
02
05
03
fb
ff
05
01
01
00
fe
ff
00
04
ff
ff
01
fe
05
04
00
fd
01
04
02
02
fd
fc
00
02
06
03
01
02
01
fc
fc
01
04
06
04
fe
06
06
ff
00
05
fe
02
01
03
02
05
05
fd
04
02
02
04
06
06
03
ff
00
ff
ff
04
0b
05
05
0b
02
08
00
fd
05
02
04
04
ff
05
01
01
04
00
02
08
03
10
09
03
08
04
06
0a
14
0c
12
12
0c
09
02
01
03
fe
04
ff
ff
04
01
03
04
ff
05
09
01
06
04
00
fe
00
fa
09
07
05
0b
0e
13
04
02
fc
02
04
02
00
00
03
02
fd
ff
0e
10
13
0f
10
0e
11
0d
01
02
0b
08
09
01
fb
f3
fb
00
05
ff
05
03
04
00
fc
fb
fc
04
09
0b
0f
10
0e
15
17
1b
1e
17
19
0a
07
0a
01
fd
fa
f9
fa
f9
ff
fc
03
01
04
01
fe
04
00
02
05
0d
11
0b
18
12
23
15
1c
0f
09
fd
02
f8
01
fe
f7
fd
06
00
00
07
02
fd
05
08
08
0f
17
fd
04
05
05
0d
08
14
fe
09
f9
fd
06
fd
04
fd
f9
fb
fc
04
ff
ff
03
04
09
06
00
05
03
fa
f9
fa
f7
fb
f3
f6
f9
fe
0a
0c
fd
01
fb
f3
f2
f7
fe
02
01
06
ff
0b
0e
0b
03
ff
05
fb
ec
ed
f2
fb
ec
fa
f5
08
03
0f
00
03
01
ea
e9
f6
fd
04
ff
04
03
0b
10
15
12
10
10
0f
0b
0c
0d
0d
fe
01
04
03
03
1a
16
1a
12
fd
f1
f8
fd
02
05
02
05
0e
13
1b
12
16
10
09
0d
01
04
0b
0b
10
04
04
0c
0b
18
21
1f
0e
f3
fd
04
00
04
fd
04
0c
14
1f
1b
0a
0c
1b
0c
fd
01
06
12
14
fa
15
1d
12
15
18
20
09
f8
fa
fc
04
01
05
06
09
1b
1d
17
0f
10
14
1b
0b
03
fa
fb
02
12
27
27
1a
17
12
09
01
f0
f3
02
03
fd
02
f8
ff
0f
10
17
11
10
19
11
06
f2
f3
fe
fd
1d
27
20
1f
10
10
05
ef
f6
f9
fe
00
01
fa
fc
fb
0a
16
23
21
0d
12
0f
fc
e3
e7
fb
09
21
1d
0e
0c
fb
fc
f9
e7
f1
f1
fa
ff
fe
fb
fa
fa
01
06
13
15
17
11
0b
01
ea
f2
01
1d
1e
0f
0b
08
fe
fb
f1
f2
ee
fb
fb
fe
fe
fe
f1
ee
f2
fd
02
01
05
13
06
f9
f2
fe
0e
1a
1b
04
00
00
f8
f3
e8
e9
f5
fc
02
00
fc
01
f4
f5
fc
fb
f9
fa
fc
07
03
07
f6
07
04
03
04
fe
f7
f2
ef
f4
e6
ed
f3
f9
ff
00
01
01
f8
f7
01
f2
fc
f8
f9
07
f9
02
0e
0d
09
f5
f6
ec
e9
e0
e4
eb
f1
f5
f5
04
05
fe
fd
00
f3
f7
f2
f5
f7
f5
01
04
0b
17
15
0f
09
07
fd
ed
dd
e5
e1
f0
ed
f8
fa
01
00
03
00
ff
fc
f0
ef
f8
00
fb
fb
12
12
1e
1f
16
16
12
fb
ee
e9
e8
ec
fd
fd
f7
00
ff
fd
04
fd
fb
00
fa
f7
f9
ff
00
f1
f7
fc
f5
07
0d
13
06
00
ff
fb
fa
05
fe
07
01
01
03
01
01
ff
fb
04
09
0b
04
01
05
fb
fd
07
02
05
07
0c
0d
fe
f8
ff
02
03
fd
01
fb
01
05
fb
fe
fe
fc
05
ff
05
04
0b
08
0c
1a
18
11
16
16
11
08
0c
05
0c
09
06
fe
fd
fd
fd
fe
fb
04
02
fb
fb
fe
04
09
06
0d
0a
0e
0e
0e
18
1e
16
0c
0f
10
0a
08
02
06
fc
fe
03
ff
fd
fb
04
00
03
01
fc
fe
04
fe
fe
04
ff
02
ff
05
02
fd
fe
05
00
04
02
00
ff
fe
03
04
00
fd
04
04
04
00
01
00
fe
fb
ff
02
03
01
02
03
ff
03
00
fe
fe
fd
fc
01
05
01
01
fe
fe
fe
02
01
fe
01
ff
fe
01
fc
04
fc
04
00
01
ff
fd
fa
fa
03
04
00
fd
00
00
fc
fc
02
fe
ff
fd
02
fd
fe
03
03
00
fd
fa
fb
fa
f7
f7
f7
f6
f9
fa
f4
f6
f8
fb
fd
fc
fb
fd
02
00
ff
01
ff
fd
fd
fd
f7
f5
f4
f2
f4
f0
f3
eb
eb
ef
ee
eb
f1
f4
f6
f6
f3
01
03
fe
04
fd
04
fe
02
04
03
00
fa
fa
ff
fa
fe
09
04
02
fd
01
f8
f7
f9
ed
f1
ef
f6
f7
ff
00
01
fe
04
fd
01
fd
00
03
01
02
fb
05
08
1d
1d
17
08
fd
f1
f5
eb
ef
ec
ea
e6
ee
fe
fd
00
fc
03
05
ff
03
02
04
06
fa
02
0d
13
1d
1a
1a
1a
12
19
18
16
00
04
f2
ef
f3
fd
04
02
ff
fc
00
04
05
fa
01
01
f7
05
0a
0e
09
14
21
1e
29
2c
2e
17
07
06
fc
f4
fc
fe
05
00
05
03
fd
00
00
f7
ff
04
fa
00
0b
fe
0a
10
16
25
28
2e
19
22
03
01
07
fd
05
0f
09
0a
02
fe
02
00
ff
ff
fc
10
06
05
fe
02
03
0b
0d
0d
16
20
18
0d
0a
08
08
03
11
0d
01
02
02
04
fb
fb
ff
fe
00
12
02
fe
fa
fa
f2
fe
fc
07
09
0e
fe
02
08
05
0a
11
1b
10
0b
fe
fe
fc
02
ff
02
05
09
11
03
09
f7
fb
09
0c
0a
0f
0d
03
09
03
00
16
06
0e
0b
0a
0c
04
fe
fe
04
01
06
10
15
11
0e
03
07
07
08
f9
0c
08
00
f8
07
03
0a
0b
10
0a
0e
03
02
02
03
05
ff
02
06
19
13
0a
21
14
03
04
ff
f9
fd
f6
f7
fd
02
0e
07
09
02
ff
ec
ee
fc
f9
04
00
01
03
07
15
05
13
1c
1e
0a
fb
03
00
fa
ea
f2
fa
0a
0d
02
05
f7
ee
ec
eb
f7
fc
ff
ff
04
02
01
07
00
01
0f
17
0e
0d
02
f9
f2
ee
fa
f4
0d
0b
00
01
f7
03
fb
ef
f2
00
fd
04
ff
02
00
ff
fc
f6
fe
16
0b
14
0e
01
fa
f3
f2
fd
06
fe
f1
00
f0
fd
04
f2
e7
f9
02
01
ff
fd
fc
fb
f5
eb
fd
0b
06
09
01
03
04
fb
fa
07
0a
fa
04
ff
f8
01
01
f0
e6
ff
fe
05
02
04
ff
f0
f4
fc
f8
01
fa
f7
ff
f6
ff
f4
fe
01
04
02
05
00
f9
0c
f9
e6
ed
fc
00
02
fd
04
04
f1
f7
fa
f6
f8
e5
e5
e9
03
f4
f1
f2
fb
09
10
09
04
01
04
f7
ef
f9
02
00
fc
01
00
00
f2
fc
02
f4
f4
e0
e5
e4
e4
ef
ee
f0
f9
0b
0a
0e
07
02
05
f6
f4
01
fc
05
02
02
00
fb
fc
fe
05
fc
f0
e0
e2
da
d6
db
df
eb
fd
f8
01
04
0b
02
fb
f3
f5
f9
03
ff
fd
00
fd
fe
fe
f3
f9
02
fe
ee
f1
f1
eb
ed
fc
f6
fa
fa
fc
f9
f9
fe
06
04
f9
03
04
04
00
ff
fc
07
ff
f8
08
08
10
fe
02
06
fd
00
fe
00
03
02
03
ff
00
05
04
08
07
ff
ff
ff
fc
04
fc
00
08
0b
0f
19
22
11
1b
18
0e
0d
06
0b
0e
04
ff
07
17
0a
0a
02
fc
ff
02
fe
04
fc
fe
04
fe
05
0e
14
21
23
25
27
23
1e
1b
15
16
1b
15
1e
20
17
0b
08
ff
fc
03
03
fe
00
00
fb
00
04
0c
09
0f
17
14
16
1b
20
22
19
1a
1a
18
0f
11
0e
ff
00
02
ff
fc
fe
fd
fe
fc
fe
03
fe
02
fd
fe
01
05
fc
04
00
fe
fd
03
fd
05
fd
05
fe
03
01
fc
fd
ff
00
03
fe
01
fd
fe
03
ff
fb
00
ff
01
fd
00
fd
fd
01
02
01
05
00
00
ff
fb
02
04
01
fc
05
01
04
02
01
fe
01
02
00
fd
fd
fb
fe
ff
05
fe
fb
03
04
fc
00
02
03
ff
02
04
03
03
03
fb
01
04
fc
fb
fc
01
04
ff
fe
00
f9
00
fb
fa
fc
fd
01
fe
ff
f8
f9
01
04
05
fd
02
fb
fe
00
02
fe
fb
fa
fc
03
06
08
03
05
18
15
11
0f
0f
0b
fb
f8
fd
f8
f6
f7
fd
06
fc
02
fc
00
fb
04
fd
01
00
08
06
0d
0e
1a
16
0f
09
0c
04
03
05
f9
ed
f6
f5
f6
04
01
01
02
fe
04
ff
02
00
07
02
08
03
06
0b
ff
f8
fb
ff
f3
f7
f3
f9
f8
f5
03
01
fd
03
03
03
fc
04
02
fd
02
03
0e
0c
0a
0e
0e
11
0f
09
04
06
f7
f2
f8
fb
fa
fd
04
0c
0a
12
0b
02
ff
fd
02
04
06
11
11
14
14
0f
0f
19
19
15
16
1d
01
07
06
09
0b
08
07
09
0f
0d
03
fd
02
05
fe
02
02
12
14
0a
16
14
0c
1d
1b
2a
2a
31
22
1a
0e
0e
0b
18
08
17
0f
13
10
06
03
03
ff
01
0a
0c
10
0d
0b
0e
14
16
1b
1e
31
39
2d
1e
09
05
00
02
0c
14
19
1d
14
02
04
ff
06
09
07
0c
03
0a
00
08
14
0f
0d
16
2e
30
10
01
fa
f8
f9
fc
08
0c
04
10
14
03
04
04
06
05
03
ff
f1
ff
f3
f8
fd
fb
06
07
05
f7
e5
e0
f6
fd
f4
ef
f4
ef
f1
02
0e
07
fc
fc
fe
07
fe
fa
eb
f5
f2
f6
f5
fa
ea
ed
e2
d6
d6
dd
fd
04
ee
e9
ea
df
e9
f5
06
03
02
01
01
ff
f5
f1
ee
e6
ee
eb
ed
ea
e0
dc
df
dd
ce
e2
08
07
f0
ef
f1
ea
ee
02
fe
03
00
ff
05
04
fd
f4
ea
e3
e7
f1
f3
ef
e4
e3
e6
f4
f0
e4
f5
ec
eb
ed
fd
f6
03
0d
08
05
03
05
04
06
fa
fa
f1
ea
ee
ed
ee
f4
f9
fb
fc
f1
e9
ec
e2
df
e8
f9
05
03
0e
17
0f
0b
02
fe
00
06
00
02
fa
f2
ef
ef
fb
01
fd
ff
15
03
eb
ed
e0
df
f2
fc
0e
0e
18
1d
0c
0d
fe
01
04
fd
0a
06
fa
ef
e7
ef
f3
ef
f5
f2
05
f8
f7
f8
fb
f3
f7
f9
04
09
1b
11
09
0a
fd
fe
00
03
09
13
fe
ea
e0
ea
e8
ea
e6
f2
f0
f5
05
09
07
fd
01
fc
0a
12
11
07
05
fd
fd
fe
05
04
07
10
04
f8
f4
f7
f3
ee
f2
05
0e
05
0f
12
0d
0f
ff
fc
04
0c
06
02
01
06
05
04
01
02
0f
10
09
02
07
14
08
00
0a
14
12
15
18
18
14
1a
0f
fd
05
0a
01
02
ff
04
00
fe
fe
fd
0a
12
13
0e
07
04
09
09
11
17
19
16
14
0f
0a
1a
0d
02
fb
03
fd
01
03
02
fe
02
fe
00
0a
08
16
0d
0c
01
0a
05
10
0f
08
05
0f
07
0e
0c
01
fb
ec
01
01
03
fe
00
fe
04
fd
04
01
13
10
17
12
0c
16
18
21
16
03
0b
0b
08
15
05
fe
f2
f5
fb
fb
01
fd
ff
fe
fc
02
04
fe
0d
0a
0f
15
13
18
1d
1e
1f
26
22
1a
11
19
16
01
f6
ef
fa
fd
fd
02
fc
03
01
00
fd
fe
03
08
06
0b
18
15
0b
0f
23
18
08
15
18
12
0f
04
fa
f7
fc
00
02
01
fb
fb
ff
04
02
05
fc
fe
f7
ff
fd
fc
fd
fe
fd
ff
f8
07
05
ff
fc
07
fe
f9
fd
fb
fc
04
04
fc
01
fd
05
03
02
fc
fe
ff
fc
fd
02
fc
01
02
00
fe
fd
fd
fd
04
ff
04
ff
ff
03
fb
fd
03
ff
04
00
04
00
01
fc
fe
00
02
01
ff
00
05
03
02
fc
fe
03
05
fe
02
ff
03
ff
fc
fb
00
02
fd
04
02
03
02
fa
fd
01
02
fc
fe
03
fc
04
fd
fc
02
01
fd
02
fc
fd
ff
ff
04
fd
04
02
02
04
fc
fc
00
02
01
ff
05
04
08
02
08
05
fd
f8
fa
ff
02
09
07
ff
01
05
00
01
01
fe
fd
fe
ff
04
fc
00
fe
fc
fe
01
0b
05
01
05
fd
f2
f4
f4
06
04
08
0e
0d
04
ff
00
03
04
ff
03
03
05
01
f7
fa
fb
09
07
19
18
16
17
04
02
fd
f4
03
13
15
13
18
06
00
03
01
ff
01
fb
03
fc
fd
ff
10
13
20
1e
13
14
00
00
f6
fd
05
07
10
0f
10
17
23
0e
fc
fe
fd
fd
04
02
fe
f9
05
11
17
1c
1e
0d
0c
05
e8
d6
db
e9
fc
08
09
04
0a
16
1a
0f
ff
fe
03
fc
fe
05
fe
f6
0f
12
16
1a
1c
17
06
ed
d8
d0
e6
f7
0e
08
01
07
0c
0f
16
0d
06
ff
ff
03
02
fe
03
ff
07
0b
0f
13
27
14
0a
f1
d0
c9
f0
02
09
fa
ef
00
07
05
03
fd
ff
fd
fe
01
fe
00
f8
fb
f7
ff
05
0e
20
12
08
ea
ba
ad
dd
05
04
f0
ee
ff
07
fa
f8
ff
f6
ff
04
fe
05
02
fe
01
f9
f1
03
15
28
15
0a
e2
b4
a9
ee
0b
06
f5
f2
f0
fd
f9
f5
f8
fb
fb
fb
02
fe
fa
f8
f6
f6
f8
06
12
1f
28
14
ea
b2
be
fa
12
04
f7
f6
f8
fa
f2
fb
f9
f6
f8
fd
00
00
fe
f5
ef
f1
ff
10
10
09
1e
18
f6
bb
bf
f6
18
09
09
fc
fb
05
04
0c
0a
f6
f8
fc
fe
ff
01
f6
f2
02
11
08
06
14
18
0a
e3
bc
d4
fe
07
08
07
03
06
12
15
21
0e
fb
f4
02
03
04
fb
ff
02
13
0c
15
11
17
14
12
ec
d8
e5
ef
0a
16
06
0f
08
02
16
20
13
ff
f5
01
01
04
04
06
ff
0b
08
1c
23
1b
19
13
ff
f3
f4
ed
fc
06
06
0f
07
02
12
10
00
fb
fc
04
fc
02
fe
fe
f2
08
17
17
22
1c
10
03
f7
f3
f4
03
ff
00
ff
10
0f
14
04
02
fb
f9
f9
04
fc
04
04
f4
f3
01
0e
0f
0d
0f
05
fc
ee
ea
00
02
0c
0e
0e
07
15
0f
06
04
fe
f6
fd
fa
02
01
fc
f8
f3
fb
02
fa
02
08
fe
f1
f2
ff
01
fc
0a
07
0d
04
1a
19
00
01
fd
f3
01
fa
04
02
fa
fc
f5
f5
fd
fe
fd
fd
f2
f3
f3
00
1a
0b
04
08
09
06
13
11
05
01
fd
fe
03
04
01
00
fd
01
f4
ee
ef
f0
f5
f5
f2
f1
08
08
18
14
05
11
07
01
01
0b
06
fd
fc
f9
03
fe
fe
02
05
00
fa
f5
e5
ed
fe
03
fa
fb
0b
0c
14
1f
15
0f
07
00
07
0b
0f
01
fc
fa
fc
ff
fe
fc
02
fc
fe
f2
eb
ef
f6
ef
f3
f7
f9
0a
14
1d
14
0f
04
05
04
0c
08
f9
00
02
00
fd
01
fc
fd
01
00
fb
f6
fc
f7
f4
f4
f1
02
0e
14
19
16
0e
01
fd
0a
03
fc
f6
f8
01
01
03
ff
fd
02
fd
04
05
fe
f7
f6
f9
f1
fd
03
07
03
00
02
f7
ee
f0
f8
f7
fa
fa
f9
fc
03
fb
fc
02
ff
01
03
fb
f8
f3
ec
eb
ed
ee
f3
f2
f0
f3
f2
eb
e4
e7
e7
f2
00
00
fe
02
05
fb
ff
03
ff
fc
fd
fd
00
ff
f9
f0
f0
ec
e6
ea
dd
e8
eb
ea
ec
f5
f3
f4
00
04
02
05
03
02
03
fc
00
fe
01
fb
00
01
fd
fd
fc
00
fa
fe
fc
ff
fa
00
fc
fd
fc
fa
ff
01
04
05
04
02
03
02
fb
04
01
ff
fe
04
04
00
fe
fd
03
fd
fd
fd
02
04
01
02
fc
fc
fd
fd
fe
fd
fe
fd
02
00
00
02
fb
fe
00
fb
02
fc
03
04
00
fd
04
fd
00
03
05
00
ff
ff
fb
01
fc
00
ff
03
fe
04
ff
ff
fb
05
01
fb
01
05
04
09
09
08
10
11
09
03
00
fc
04
fb
fc
02
fc
ff
fd
03
00
fc
04
fe
ff
04
ff
04
06
0c
0f
1a
17
14
19
18
15
0e
08
02
fc
f5
fd
02
02
fc
fc
fc
03
01
fd
fb
06
0b
12
09
10
12
1a
11
15
17
0e
05
13
02
0d
0e
02
f8
f8
f9
fc
ff
fc
02
04
fd
04
03
0e
15
1a
0a
07
01
08
00
fe
f3
f5
fe
06
00
0c
09
fd
f5
ee
ef
f0
ff
01
fe
04
01
03
0a
15
22
15
06
fc
02
fc
f2
f3
f0
e9
f1
fe
0a
10
03
fa
e9
e0
db
e7
f6
fa
fd
02
fd
fb
07
25
22
0f
06
f6
f6
f0
f3
ef
e3
e2
ee
fe
16
0f
04
f6
e2
db
cd
d7
f5
ff
01
02
ff
02
08
24
19
0d
fc
f4
f0
f0
eb
e6
df
d1
fb
0f
2b
13
09
f0
dc
d6
c5
cf
f1
fc
fb
fc
fd
02
09
18
08
f7
f7
eb
e6
d0
d1
d8
d2
df
14
2b
25
15
0a
ee
da
d0
cb
d1
ee
f9
fd
fc
01
04
01
06
f4
df
da
d5
d5
db
e1
d9
ed
fc
23
25
24
07
01
e1
cf
d3
dc
e6
f8
fd
00
fb
03
00
04
f1
e4
d3
d9
e0
ea
f3
f6
fc
0b
1f
1e
16
fd
f3
eb
d7
da
df
ec
f0
fc
fe
ff
fe
04
01
ff
ee
e8
e3
ed
02
0c
13
1c
24
19
10
01
05
e8
e7
e0
e8
ef
fb
06
0c
07
05
fc
fd
fe
fc
fa
f0
f3
f4
f3
10
18
13
17
1b
13
00
fe
00
f3
f1
f1
fd
03
ff
12
11
0b
02
02
02
03
fb
04
fc
01
05
0d
1d
22
09
0b
10
05
07
03
09
05
fb
09
08
12
15
1b
16
0a
08
01
fb
05
05
05
06
10
1b
1c
20
0f
fc
fe
00
14
17
0b
0e
ff
ff
15
0d
1b
1a
1f
13
0e
09
06
fd
fe
04
0e
12
10
16
20
16
0c
ed
ea
02
09
12
07
05
00
0c
19
16
20
20
21
20
12
08
fe
03
fc
02
0a
0f
08
06
1b
05
f5
e9
f2
f9
0e
10
0f
10
0f
08
0b
0a
20
25
18
0f
0b
04
03
fc
01
06
13
12
05
fb
ff
f9
f3
ec
ea
f8
03
fb
0a
1c
1a
07
04
0d
1e
17
16
08
09
02
04
05
02
ff
12
08
07
01
03
ed
fe
eb
ef
e5
f8
fb
14
29
21
0e
06
12
14
12
0b
ff
09
06
04
fc
04
06
14
04
fc
01
07
02
08
f3
fb
f6
f9
08
10
18
16
1f
0f
16
10
01
fe
00
06
03
04
01
02
07
0c
07
fb
fb
00
06
fb
fe
f0
f3
f6
fe
06
03
09
0e
12
00
f9
f4
ff
ff
fc
03
fb
ff
05
05
07
09
07
01
02
04
ff
00
f2
ed
f3
ea
f2
ee
ff
08
0d
0a
01
fe
f5
fc
fd
ff
fe
fc
fb
05
08
04
0d
06
09
02
09
0c
01
f8
fd
f6
fa
f3
fd
11
0d
04
fa
fc
fa
f9
ff
01
05
00
ff
fd
05
06
ff
08
0a
0d
11
0b
0f
fd
09
05
f2
f3
f7
fd
f9
f7
fe
f9
ff
02
04
02
fd
05
fb
fc
fc
fe
ff
ff
f6
01
fe
f8
f4
fa
f1
e5
dc
e3
de
de
e5
e9
f0
fa
ff
fd
ff
05
00
fc
fc
fc
00
03
02
ff
fd
f7
fa
f5
ed
e5
e1
de
e7
ea
ec
f2
ec
f4
fc
00
fe
fe
02
03
ff
00
ff
ff
fb
fc
04
fd
03
02
ff
fc
ff
fd
fb
01
fe
fe
fb
fe
ff
05
fe
03
00
03
00
ff
02
fe
03
fc
fc
05
fe
fc
fc
05
ff
fc
ff
fd
fd
fd
04
02
03
00
fe
fe
fd
fc
fc
01
03
04
00
ff
00
02
ff
fe
ff
fb
fc
fd
00
fc
01
fc
04
fb
01
fa
fd
fb
fb
fb
ff
04
02
03
01
fe
fe
fe
fb
03
fe
fd
01
00
01
f9
ff
f4
f8
fb
f7
f3
f5
fc
f4
f8
fd
f9
02
fe
00
00
01
03
fc
01
fe
05
04
fe
03
fe
fe
f3
ef
f1
f0
f9
f3
f1
f6
f3
f5
fb
fd
fa
f6
f8
03
03
01
fb
04
02
fc
02
05
fe
03
03
fb
03
00
05
fb
0c
17
12
0a
15
06
07
0f
01
f8
f2
f0
f7
fd
03
02
ff
00
04
02
ff
0d
0f
05
04
00
fe
0b
14
0c
09
0d
05
03
ff
05
07
04
f3
ed
f7
01
02
03
fd
03
01
05
06
07
09
0b
0d
13
0f
14
0c
09
f4
fd
08
10
08
03
09
0f
f9
f7
f8
04
fc
fe
03
03
02
0d
0f
0b
11
0a
11
12
0d
ff
fa
fb
e5
fb
02
0b
0d
11
15
07
f9
fb
f7
f9
ff
01
02
02
05
0c
17
0a
15
1b
20
1f
0b
f6
fb
08
fc
fd
04
06
24
1a
15
0a
09
eb
e2
f5
06
00
04
02
01
0b
16
13
22
1a
10
0c
f6
ea
f9
fe
ff
07
09
18
15
22
1a
12
fb
e5
db
ec
fb
fc
04
ff
03
0e
16
09
0a
0d
fa
f5
fd
ef
f3
ff
fb
fd
0c
13
1f
20
1f
0c
f6
e3
d5
e9
f8
06
04
05
02
0e
0a
02
05
00
fb
fa
05
0b
0a
09
13
0e
11
27
19
12
1f
fd
f7
eb
eb
f7
02
fc
ff
03
07
0c
11
05
f9
fc
fa
00
fa
04
09
07
21
27
2c
31
20
13
01
00
f4
fd
f6
fd
fb
03
03
fc
fd
0a
0a
f6
ef
ed
fd
02
fd
04
f9
0a
24
2c
31
31
1e
fd
fb
eb
f0
ee
f6
fc
fa
fe
00
02
05
0b
04
f5
e1
e2
eb
fb
f5
fb
07
1c
24
30
31
2c
08
ee
e3
eb
ef
ee
f7
00
fa
01
01
fd
02
04
04
e0
d3
e1
ec
fa
fe
0a
09
1d
2d
28
2e
16
f0
eb
ed
f5
07
fd
ef
fb
fb
ff
ff
fe
00
04
fd
dc
dd
e3
f4
04
fd
f5
09
20
19
1d
24
06
ee
e5
e9
f2
f9
fb
f4
f8
f9
04
fd
fd
08
fe
f8
dd
da
f2
f8
f2
e4
eb
fd
0f
08
02
01
f4
e6
ea
f3
ee
fa
f4
ef
f4
02
03
ff
00
03
08
f9
e7
ea
de
e8
eb
de
e8
e0
f4
f5
f6
f5
f2
ed
f0
f7
f2
f3
e5
e0
fc
ff
fd
01
02
06
06
fc
ef
f0
f0
ef
ef
ec
d0
d1
e7
f6
fa
fb
f8
ef
00
f2
f9
ec
ea
ec
f7
02
ff
05
05
fd
04
02
fb
08
03
fc
f3
ee
d7
e2
e0
f8
f5
f7
f6
f5
f3
f4
f6
f4
ed
ee
fc
04
01
03
fd
05
00
07
03
0d
05
07
fa
f5
f7
f3
fa
f8
02
00
fb
fc
f1
f8
f5
eb
f0
f2
fb
03
05
fb
00
02
06
00
0d
0f
10
06
fe
03
01
fa
fd
03
02
fe
f8
f9
fc
ff
f7
eb
ed
f5
fd
fb
02
fe
fd
01
ff
07
0d
09
17
02
00
00
0a
0e
14
0d
14
07
06
0a
fa
f0
f5
ed
f2
f8
01
fd
fc
fc
01
01
fe
04
0c
17
1c
15
0a
10
16
06
0b
09
12
0c
07
02
00
fd
f2
f0
fe
fb
fc
02
02
02
02
00
fc
fe
0c
0e
0c
1b
14
14
11
15
15
14
06
08
09
0e
09
02
f8
f9
ff
ff
04
fc
fd
02
00
fc
02
00
02
04
04
08
09
0e
04
0b
0b
13
12
0b
0a
10
03
04
02
04
00
fd
fb
fd
05
ff
00
ff
fd
04
ff
fe
05
04
03
05
fd
02
01
04
05
00
07
03
05
01
fb
fe
fc
01
fd
fc
01
fb
fd
fd
03
05
02
fd
04
05
ff
04
01
fc
ff
fc
02
03
fb
fe
00
04
fd
00
00
fd
fe
ff
fe
fe
00
00
fd
03
04
fe
fd
f9
fc
ff
fe
ff
fc
00
01
04
03
fc
ff
ff
00
02
fe
ff
fb
fe
fb
02
fc
fd
fc
04
fe
04
fb
00
fb
f6
00
f8
fd
08
05
06
0b
00
02
04
00
01
fe
ff
04
ff
02
04
04
03
03
ff
01
ff
fc
02
f6
f4
f4
f8
fb
05
0f
06
07
11
12
16
13
09
06
fe
ff
02
05
02
00
02
fb
fc
00
fd
ff
fb
03
0d
0e
0e
12
11
15
16
11
17
1c
11
16
12
10
11
03
fc
04
00
02
ff
03
f8
03
05
00
04
02
02
04
ff
03
0f
14
13
12
0d
0b
09
03
05
13
16
06
06
00
fe
fb
ff
05
fc
01
ff
f8
f5
02
fd
03
f7
ef
f4
0c
07
09
10
08
fd
f6
fd
10
1f
13
0a
00
ff
fe
fe
02
fb
00
fa
f5
ef
f9
fc
fa
fa
e9
fe
fb
00
ff
02
f9
fd
fa
fe
07
19
1f
03
05
01
04
ff
08
06
06
f8
fc
fe
f6
fd
03
01
fc
02
fd
f3
ee
e9
ee
fe
06
0a
0b
1e
1b
05
00
fb
06
07
07
0c
fb
fd
fc
fc
fe
f6
07
0f
08
06
02
ee
f2
ee
f0
f9
05
01
01
14
25
0b
fd
fc
02
03
08
16
fe
f4
f5
02
0c
0b
10
16
1d
13
07
fa
ed
e3
f0
f8
00
f1
e8
05
17
08
01
04
04
08
0d
13
00
f9
f9
07
04
0c
0e
15
13
0f
11
0c
00
00
f8
ee
e7
d6
d3
e6
08
07
02
03
04
04
0f
0d
07
fe
0b
0c
03
0a
08
fb
fa
ff
10
14
05
0d
00
04
ea
d5
ce
d8
f8
fe
fd
01
fc
07
0a
0b
0d
00
fd
03
f8
f0
f3
f4
e9
03
07
11
0a
08
05
14
fd
ea
de
dd
fc
fb
fa
fc
fe
04
01
06
0c
fd
f2
f6
e1
da
d9
e1
df
04
06
03
09
05
0c
0a
fc
0c
fe
f7
fb
f8
01
fc
fd
03
05
ff
ff
09
ef
ea
d7
c8
cb
db
e1
f3
ff
fc
11
12
0a
16
15
17
0a
fd
fb
fa
fa
fe
03
00
09
07
fe
04
00
ee
d7
c8
c5
d0
dd
ff
10
00
03
0f
13
0d
07
07
03
fd
f3
fa
03
ff
00
05
0a
11
04
0b
18
10
f7
ef
d5
cc
d5
11
11
05
0f
12
09
0e
02
fe
04
fc
ed
01
01
fd
fd
00
10
14
13
1e
27
27
2a
0d
ee
d0
ee
23
2a
13
11
0b
06
08
0c
fc
f8
fc
f5
fc
01
fd
01
06
0f
14
0b
15
15
2e
1c
11
f3
e0
f4
27
2d
21
10
12
00
fe
f8
f1
fe
06
03
fc
01
01
04
00
03
01
00
04
0b
1e
10
00
f9
ee
fe
23
28
2b
20
13
01
f3
eb
fb
f5
fa
03
fa
00
02
fe
ff
fd
f9
f2
fc
fe
11
00
f3
f0
f5
05
16
25
22
12
18
0c
fd
01
fa
f3
f9
02
fe
01
fc
02
fb
fb
fd
f3
e4
e7
e3
e6
e4
da
dc
ee
02
18
11
12
0c
09
fb
f3
f3
f4
fc
fb
03
fe
02
03
fc
fa
fc
fb
ee
e0
d5
e3
e9
e1
e2
eb
03
0a
0b
04
06
fe
f0
ee
e9
f4
fb
fd
02
05
fe
05
ff
06
03
00
ff
fe
fb
fc
01
08
01
08
03
0c
0e
11
08
fb
f4
f6
f2
f9
fe
00
05
03
fb
fe
03
fc
00
01
01
11
12
14
16
1f
22
1d
0d
1c
13
0e
0d
04
03
04
fe
03
05
fc
ff
fc
03
03
04
01
ff
fd
fa
04
03
06
04
0a
ff
08
03
0b
0a
00
05
0f
06
04
fe
00
01
02
01
fd
00
fc
03
03
fe
fb
00
02
fd
03
05
fc
03
06
fe
05
00
08
ff
05
00
fc
05
00
01
02
01
02
fc
fb
fe
fd
fb
01
00
ff
00
02
fe
00
00
03
ff
02
fe
04
01
01
03
fb
02
04
03
03
fc
04
01
fb
05
04
ff
05
01
06
fd
fc
02
00
fc
fd
03
04
fd
fd
01
01
fd
04
fd
04
fd
fb
01
fe
03
fe
01
04
fd
fe
05
08
06
09
0a
0a
09
0e
0a
0b
05
04
06
06
03
05
05
04
ff
03
04
04
01
04
fc
00
fc
04
03
03
08
08
0b
09
04
02
00
f5
fe
02
fe
fa
fa
fa
fb
fe
fb
fb
fb
fb
fe
01
fe
03
03
00
07
03
0d
0c
0e
03
0f
02
f9
e8
e8
ee
eb
ea
f4
ef
f4
f7
fa
fd
00
02
ff
02
01
02
01
0a
08
0e
11
0b
0f
12
0f
03
f1
ed
f6
f4
f4
ec
e9
ee
ef
ef
fa
01
03
00
ff
fe
ff
fe
04
01
0a
07
0a
14
10
10
05
f7
ff
05
02
08
03
fb
fa
f6
ec
f6
f4
fa
fb
03
fe
02
fe
07
07
fe
ff
01
03
07
ff
05
06
08
08
0b
fe
f3
f4
fa
07
05
05
fe
f7
f5
fb
01
01
02
05
06
04
07
08
05
08
fc
07
0a
ff
0a
07
f9
f8
ee
f9
04
0a
0d
0e
04
f6
f8
01
01
04
fd
03
fe
06
03
03
06
14
12
0c
03
04
03
00
fb
e8
f0
f7
04
0d
0d
1c
09
f9
fa
ff
05
04
fd
01
fd
02
0f
0d
0e
15
12
12
0d
fc
f3
ec
e1
e0
e7
f6
0d
13
10
15
07
f6
f3
fa
00
02
01
04
03
07
12
09
0f
0d
10
08
08
f8
e8
e0
d5
e7
f5
12
23
2d
1e
12
0d
f7
f6
f6
fd
fc
ff
05
05
0a
0a
01
f8
fa
02
f2
eb
d7
c8
db
ea
04
15
19
2a
2a
1c
16
0f
03
fd
fc
ff
03
fe
fe
05
0c
04
f8
f4
f8
fb
f5
e6
cd
e3
fd
1a
21
1a
14
2f
2b
21
0f
0c
06
09
ff
04
04
03
fe
07
fb
f9
03
f9
f8
f6
ed
e9
e1
fe
12
24
23
10
1a
25
1b
0d
04
ff
02
09
08
ff
04
01
02
07
fc
fe
0e
f3
f2
e1
e3
e9
f4
12
1b
20
0c
11
07
14
0b
03
f9
f0
fc
05
07
03
05
fb
fa
02
fb
f7
03
f3
f1
e0
ea
f8
0d
18
1f
13
20
14
01
03
fb
f7
f0
f3
fc
0d
07
04
00
fb
04
ff
fa
ef
f5
f2
f5
e4
f2
11
22
21
1b
1c
09
04
f9
ee
f7
f2
ec
f0
06
0b
06
ff
fc
02
01
02
f3
fd
fe
f8
f2
ee
f3
10
1e
1f
1f
0e
05
08
01
f7
f5
ec
f6
fa
07
0b
06
00
fb
fd
f9
fc
f8
ef
f8
00
f3
ef
fe
0f
12
18
14
05
13
02
fe
fe
f1
e7
f5
03
0c
06
ff
fd
01
00
ff
02
f4
f3
ff
07
03
f9
f6
fa
02
09
04
0b
05
ff
f5
ed
ee
f3
ef
04
11
07
03
fe
01
00
00
04
fb
fe
02
ff
07
07
01
fb
fd
03
02
01
0a
09
fe
00
f4
f9
f8
07
0c
fe
ff
fe
03
fb
fd
fc
07
0c
0f
05
0d
0b
07
f9
fa
ef
fa
ef
00
fe
ff
fd
06
03
05
05
04
03
ff
00
01
05
ff
f6
f6
07
02
0d
08
03
00
03
04
f3
f5
f5
01
fc
01
06
10
12
0e
09
04
ff
fd
03
00
ff
ff
fd
f9
fd
01
08
07
ff
06
03
f7
f7
f3
f5
fa
04
02
05
14
16
0b
05
09
ff
fd
fb
02
02
fe
fa
06
08
0f
0a
10
05
fd
01
fe
ff
09
00
03
03
06
06
13
09
03
04
00
00
02
fd
fb
02
fc
fc
fd
07
02
0e
12
15
0f
0a
0b
19
1b
17
16
15
16
0a
0e
04
00
fc
03
fd
fe
03
ff
04
02
00
fd
fb
02
01
06
fc
03
03
04
05
04
fe
02
08
00
ff
07
01
00
01
02
00
04
00
fe
fe
00
ff
04
02
04
04
04
fb
ff
00
04
00
02
00
fb
00
00
fd
05
fc
fc
fc
fb
ff
fd
04
03
02
04
fc
fd
04
04
02
04
02
00
ff
02
fc
05
fc
fc
04
fd
fd
ff
fb
00
ff
ff
00
fd
ff
ff
fb
fc
04
fb
ff
fd
06
05
02
fc
f9
fb
fe
f9
f7
f8
01
ff
02
fa
ff
04
fb
fb
fb
fd
ff
03
fe
04
04
04
fb
02
04
07
fd
01
fd
fe
02
01
05
fe
00
09
05
05
fb
01
fc
02
00
01
05
fe
05
fe
00
fd
ff
f9
04
fe
09
0c
10
fa
fa
f5
08
f9
07
11
08
fd
06
09
03
02
03
fe
ff
00
05
04
ff
fa
ff
fd
fa
00
ff
0f
17
0d
16
0c
0f
fe
06
12
09
00
fe
02
06
03
03
03
00
04
02
02
f9
f7
f7
f7
f9
03
05
16
1b
19
2b
28
1a
0f
0a
0e
05
ff
03
00
01
0b
07
00
00
01
fb
fd
f4
e8
ed
f0
f4
08
0c
16
1f
24
29
2c
16
0c
03
fd
04
02
f9
ec
ee
01
04
02
fd
01
01
ff
f5
e2
ed
ec
eb
0e
0d
10
1b
0f
09
11
0c
0c
fa
fc
f6
fa
f7
ea
ed
02
09
fe
02
02
fc
ff
f9
e6
e6
02
05
17
10
19
22
09
f2
f2
fb
fa
fb
0b
ef
ec
e2
dd
ef
0c
0e
07
03
fb
fa
fd
f5
ea
fc
0e
14
14
18
10
0d
ff
eb
ee
ed
00
03
08
ef
ec
ef
e7
ed
05
08
09
03
01
fb
fb
fe
00
04
19
0b
16
12
13
00
ef
f3
ee
f9
0c
20
1b
10
04
fa
f9
f9
fa
03
04
fd
00
fb
ff
fe
0d
11
1c
14
0d
0e
0d
f0
e0
f6
f3
f4
00
16
28
24
1d
0e
0b
09
f4
fa
fe
fd
05
04
00
09
14
14
12
22
12
05
03
e6
e6
e9
e7
e5
f1
0e
11
1e
13
1a
0f
02
fd
fc
f9
00
02
01
fc
02
12
10
12
19
13
01
f2
da
e5
e5
e6
ed
f7
ff
0a
03
19
16
13
0f
06
fe
fd
03
fd
fe
00
fd
12
0b
0c
12
0f
fe
fb
ee
f4
f3
e9
e9
f3
fd
07
02
10
12
fd
12
0c
f9
01
fc
ff
00
03
06
08
0f
03
03
04
00
04
07
0d
f7
e6
d7
e1
f6
fa
00
03
fa
09
0a
09
f5
f9
02
04
00
fb
01
fe
04
03
fd
fc
fc
16
10
0a
ef
d8
e4
e7
f8
03
0a
07
fc
08
09
fe
f9
ff
fe
fc
04
04
01
ff
ff
04
02
fa
f9
10
07
e3
d5
e3
f6
f6
08
08
0e
0a
04
0a
fe
00
fe
fa
fe
fc
fb
05
05
00
00
f8
fc
fe
f0
f2
f5
f4
e5
ec
ff
09
02
12
14
10
0b
05
07
0b
fe
fa
fe
01
fe
fd
00
0f
12
f9
ed
f9
fc
e9
e8
ed
fb
02
03
16
12
0c
0d
06
01
0b
04
0d
05
fc
04
fb
02
04
03
0c
06
02
f7
f8
f2
f3
eb
01
04
0c
13
22
ff
05
02
09
0a
07
ff
0a
ff
fc
05
02
03
fd
04
03
ff
ef
f7
f5
f4
f4
fa
06
17
20
11
17
0e
09
02
07
fd
0c
0f
01
01
fc
04
00
01
00
02
02
05
04
f3
f5
fb
08
0f
12
0d
08
fc
fc
ff
f6
fa
05
07
14
0f
0e
05
02
01
fe
fd
04
07
05
0c
0b
0c
03
03
08
fe
0a
03
03
f9
fe
0a
0d
05
12
17
12
09
09
03
04
03
fc
fe
fe
fc
04
01
09
06
11
15
13
12
17
13
0a
05
17
14
1f
22
21
18
10
0b
02
02
01
fc
03
fe
fe
fe
02
fe
01
05
02
09
0f
18
20
19
22
15
15
1b
10
0f
11
0b
06
01
02
04
04
fe
fc
01
fc
fb
04
fc
05
fb
fc
03
00
ff
03
fa
fd
fb
fd
fa
03
fe
01
fe
ff
03
01
03
02
fc
03
04
02
04
fe
fd
fc
ff
ff
fd
fe
fe
05
ff
04
00
02
03
fb
fe
fc
05
02
fe
fc
03
01
fd
fc
fd
01
fc
ff
03
01
fe
fe
00
01
03
00
02
02
fa
fc
03
00
fb
01
fb
fe
02
00
fc
03
00
ff
fb
fe
01
fd
01
fa
ff
fd
fb
f5
f1
f2
f1
ec
f2
f3
fa
f3
f6
fc
fb
fa
02
01
00
05
fb
fb
01
05
03
fd
03
ff
fb
fc
f4
f7
fe
fe
f8
07
03
07
0d
06
02
0d
fc
fa
f6
fa
02
01
03
00
fc
00
04
02
01
00
07
07
06
06
14
0a
09
0a
13
0e
0a
0f
08
0b
06
05
fd
03
05
fd
fb
02
02
fc
ff
07
06
0f
0e
0d
0a
0c
0c
01
03
06
09
03
06
03
06
07
fc
05
fd
ff
ff
04
00
ff
00
fe
02
0c
15
12
11
10
07
00
fe
fd
0f
05
00
01
04
ff
00
06
11
0c
0d
09
fd
ff
ff
05
01
01
03
09
0b
0f
0c
03
ff
f8
ff
08
0f
0a
0c
06
12
0d
06
09
fe
09
19
0b
02
fc
fe
02
01
05
04
0a
0d
03
03
ff
fd
f6
f8
0e
04
0f
0c
14
0b
1b
04
0d
0b
13
1c
1c
0b
03
02
03
fd
01
0a
06
04
0f
0d
03
00
f9
fa
fe
fe
00
01
0f
0d
05
0c
0b
18
1e
22
1c
0d
01
01
fe
00
02
06
11
03
08
0b
05
05
f4
f4
fb
07
0a
0f
10
05
fe
fb
0f
0f
1a
18
1a
0a
00
05
01
fd
00
0d
09
f7
07
07
09
fc
07
10
17
1f
20
14
0b
12
03
f8
06
06
0c
08
0b
08
06
fd
03
02
00
08
01
04
0d
0d
fc
02
0b
1c
25
25
1d
10
07
05
04
06
02
00
01
00
ff
00
08
02
fc
03
05
0a
09
0c
11
19
00
ff
12
1a
1d
0d
ff
f7
03
09
1d
0b
07
05
00
fc
fb
fb
f8
02
fc
ff
fd
06
0a
0f
0a
0d
03
01
fe
08
0e
f3
f0
f9
f2
17
23
0d
08
11
04
06
03
f3
f9
fb
ff
04
02
00
0f
0d
02
08
f9
f5
fe
fa
f4
e9
f2
00
f5
19
21
17
18
14
1a
17
ff
ef
f9
fb
fd
fe
03
00
0e
0a
03
05
fe
f3
f4
f1
f5
f3
f5
fb
fc
19
1b
15
19
03
0d
10
00
e3
fa
fc
ff
04
01
07
0d
12
06
04
f9
f9
ee
f3
f6
f9
f2
fb
0e
1f
10
17
11
09
0d
13
fd
e9
00
fc
fb
ff
04
09
03
0e
10
01
09
fc
01
0b
04
ff
f9
09
13
0b
fd
05
ff
08
0f
fa
e7
ed
fc
01
03
05
02
09
05
1c
06
fe
0d
01
05
08
10
07
03
02
ff
fd
ff
f7
fe
04
02
f0
ec
ef
fe
03
04
00
fd
fe
03
11
04
f3
08
03
00
03
03
11
09
09
fa
ff
f1
f0
f5
fd
ff
ee
f0
fa
fb
01
ff
04
ff
01
fc
f0
00
f9
f9
ec
f2
00
f9
fb
fe
02
01
f0
ee
ef
f8
f6
f7
f0
f5
00
02
03
02
00
fc
00
f3
ee
ef
f8
eb
e3
ed
06
fe
f9
07
08
06
03
f4
f9
ed
ef
f9
ff
f6
00
03
01
03
04
03
09
02
00
06
0c
01
01
0f
09
f3
02
08
0a
04
ff
fa
ec
f2
ef
f7
f6
f8
ff
ff
fe
03
fd
05
02
0f
0e
17
1f
19
19
25
25
1a
26
22
1e
12
fa
ed
f0
f3
f3
fb
f9
01
fc
fb
04
fd
00
00
ff
04
02
0f
0e
1c
1c
27
27
21
21
10
0f
0f
01
ff
02
fc
fa
00
03
02
02
00
04
fc
fc
ff
00
03
fc
fb
01
01
fa
ff
ff
05
05
fb
fe
02
fe
fd
00
fb
ff
ff
00
00
ff
04
fe
02
02
ff
fc
fc
01
02
03
fe
04
06
ff
fe
ff
fb
02
01
03
04
fe
00
04
fc
05
03
fe
fc
03
02
fe
02
02
05
03
01
fb
04
04
ff
00
00
00
03
01
fb
02
fd
01
02
fe
04
00
fd
04
03
04
fc
fc
fb
03
03
fd
02
01
fe
00
fd
ff
02
01
fc
00
ff
fc
fb
00
fc
fd
02
01
fe
01
03
fe
fe
01
01
02
03
00
02
fd
02
09
ff
fc
f8
fb
f0
f6
ef
f6
fc
f8
f9
fb
ff
fc
02
06
ff
ff
fb
ff
00
01
fe
fb
fc
03
05
11
15
0d
02
f7
ea
e4
df
e7
f1
f7
fe
01
00
02
01
09
01
ff
02
fb
fe
00
01
ff
fc
fb
01
0d
17
16
10
01
04
f8
e7
f5
fb
f4
fe
fe
01
09
0f
09
fd
02
fd
fc
fd
ff
fd
fa
fc
00
0c
0a
17
24
1d
16
14
00
04
0c
0c
03
03
0c
08
08
10
09
07
ff
fd
05
00
00
fd
fe
08
10
17
13
18
19
1d
1a
23
33
22
24
1c
14
10
08
07
02
19
0e
08
fc
fb
00
fd
06
fe
03
18
14
2a
1f
22
1c
18
22
26
33
32
1e
24
10
0b
0f
04
05
0b
0e
02
fe
01
04
fd
fb
f9
14
15
1b
26
1a
22
1e
22
28
3b
1f
17
04
14
0d
08
06
fb
0d
1b
0e
09
fd
ff
fd
03
05
01
18
1d
15
17
1c
1b
1f
1f
24
11
e5
de
f3
fd
f6
f4
f3
f6
07
0f
11
0a
fc
04
04
04
00
08
1f
24
0b
13
16
10
15
03
fd
eb
cd
d8
de
e6
e2
e7
e8
e3
ec
08
0b
09
01
fb
05
02
fb
05
17
17
06
00
fe
f3
f9
e6
f0
e2
dc
ea
ed
ef
f2
dc
dc
df
ea
05
0b
0b
fd
05
03
fd
fa
fa
f8
f2
f9
fb
ed
ea
e5
d8
ed
f1
f9
f6
f7
fd
ff
f6
f3
e7
eb
fd
08
06
ff
01
fe
05
ff
ec
ed
de
f0
e7
ee
f4
ec
e9
02
fe
f8
fc
f9
01
f9
fe
ef
ed
f4
fc
fe
03
04
ff
04
03
f8
e8
d4
e1
ec
e9
ec
fe
ed
ef
02
0a
fc
f9
fb
f4
f3
fd
f5
e4
f5
fe
fe
04
fc
fc
04
fd
f7
e8
cd
dd
e7
f4
f2
f8
f1
f8
04
fc
f6
ed
ef
fa
f0
f6
f3
e6
f8
0a
04
0b
02
fd
01
ff
fc
ee
d6
da
e1
f4
01
f9
ff
13
07
f2
f5
f5
fe
f9
f6
0b
0a
05
0c
17
13
08
06
02
05
ff
fa
f0
e3
e3
e6
fa
04
00
0e
0f
02
f4
f1
f3
fd
f4
fe
0a
08
0c
0e
1a
16
05
ff
fc
fc
f9
01
02
f7
f8
ff
fd
02
0a
03
01
fa
f7
f6
f6
f9
f4
06
07
08
11
15
1e
12
02
02
fb
ff
03
01
08
0c
16
0c
0f
fb
01
f8
fe
00
f5
fc
f4
00
fe
02
0b
04
13
16
13
07
fe
00
05
fe
00
05
15
1b
18
1a
17
fb
f3
f0
fe
fe
f5
09
01
02
fb
fc
fd
f8
0b
12
0e
0b
00
05
04
fb
03
01
05
14
12
0a
01
06
f8
fb
fd
03
06
05
08
fd
f7
fc
f5
ff
12
17
0f
04
fc
02
00
00
04
01
0e
0c
17
1f
14
10
0c
09
07
06
11
02
0b
ff
fe
fe
03
05
13
0f
0a
06
01
01
05
fe
ff
fa
00
02
10
17
1c
22
22
1d
13
10
11
12
10
00
06
0a
0d
0e
10
10
07
fe
fb
00
04
fe
03
fc
fd
f5
f5
01
0e
0d
08
19
29
34
2c
31
27
15
27
1f
09
0a
04
05
07
ff
fb
00
fc
ff
01
ff
01
f7
f8
01
05
17
18
1e
2a
26
23
35
36
33
2b
16
0b
08
00
04
01
01
05
04
fd
03
05
ff
01
f8
00
fe
08
09
05
0a
06
0a
0a
12
14
0a
0f
09
05
05
04
fc
02
fd
fc
00
ff
01
01
03
03
fb
fb
fd
03
05
fe
02
01
03
03
02
05
00
05
00
fb
02
03
04
01
02
02
fe
00
00
fd
fe
fe
ff
fd
03
00
04
fd
01
fe
03
fe
fd
00
fd
04
00
03
fe
ff
fb
01
02
03
01
00
ff
02
05
00
fc
fb
02
05
fe
03
04
05
03
fd
03
01
fd
fb
fe
04
05
04
fc
03
03
05
fd
04
ff
02
fb
ff
fd
ff
00
01
06
0a
08
05
06
06
08
08
0c
08
02
02
00
03
05
05
01
fd
00
01
00
03
02
fe
ff
02
02
03
01
05
13
10
04
0b
11
0c
0d
10
10
11
0c
08
02
03
fe
fc
04
00
fd
05
00
fe
01
00
05
09
08
0c
0e
01
fa
f3
fb
f2
fd
fe
03
05
0a
07
0c
0d
fc
fc
fb
fb
04
fd
00
fc
fb
04
03
00
02
07
fe
f6
f7
f4
f7
f1
ec
f0
ec
f1
f3
ff
19
0d
04
ff
fd
fc
05
04
01
fd
fe
ff
fc
fe
f6
f1
f4
f2
ef
f4
f9
fe
07
03
f1
ed
f8
fd
01
08
0a
08
fc
fd
01
01
fa
fc
fc
f3
eb
f8
f4
ee
f5
ee
f2
fd
f6
fb
0f
02
f6
fe
01
f8
f7
02
0e
03
01
fc
01
03
fc
f5
f5
ee
e9
ef
e8
eb
e9
eb
f7
fe
fb
fb
f8
f5
fd
07
fe
f4
f9
04
05
03
ff
02
00
fd
f8
f1
ee
e3
eb
eb
e0
e6
ea
f4
fe
0b
06
fc
f6
f9
fa
fa
fe
f5
f1
f6
0d
02
ff
00
ff
f9
f6
ef
ee
e4
f1
f0
ee
eb
fa
0a
0d
0b
09
fb
f1
e8
f2
f4
f0
eb
ed
f0
08
fe
00
03
fa
fd
f5
ec
ea
e9
f6
fb
e8
f2
02
22
1f
11
0c
03
fc
ef
f0
ea
ec
e7
e1
ed
ff
f8
02
fc
fe
00
f8
f4
f3
ee
fd
00
fc
15
31
35
2c
16
11
0e
00
02
fa
f2
e2
dc
e1
f0
fa
fd
fc
ff
04
fa
fc
fc
00
0d
0e
0b
14
2d
29
35
23
0b
07
14
1f
18
05
f9
eb
ef
f5
fd
03
fd
ff
04
04
fe
01
01
05
0f
19
21
2e
2a
1f
17
0f
05
0a
2b
21
1f
09
ff
f4
f5
03
00
05
00
ff
fb
ff
04
05
08
09
0e
0b
13
1f
29
18
13
05
00
1e
27
2b
15
0d
f6
f8
00
0a
03
03
00
03
fb
04
02
07
11
0f
07
03
01
04
0a
1c
0d
04
09
18
24
20
12
07
09
0c
1a
0f
08
09
00
01
fc
ff
00
03
12
13
15
01
f4
f5
0e
07
ff
09
14
2c
1e
17
14
05
06
11
10
12
04
09
fe
04
fb
fb
05
0c
1c
10
13
fc
f7
f2
fe
fd
09
0c
25
2e
23
14
11
0f
fe
05
09
0b
12
05
fe
02
00
fb
04
07
17
0b
04
f4
f6
e5
f4
fe
ff
06
22
21
17
07
05
fd
f4
01
03
0a
0b
00
06
01
03
fb
03
0e
0f
02
f1
f3
f4
f0
e5
ed
ee
f3
00
f9
fb
f6
fd
f3
e9
f4
f9
03
0e
08
05
00
fe
fe
03
06
02
f6
e3
e8
ed
ee
e9
e3
e4
dc
d3
d2
dc
da
e9
e6
df
ea
f4
ff
04
04
00
03
04
fe
01
01
00
ee
e8
ee
f6
f3
f6
e7
e6
df
cd
d3
d8
d7
e1
d9
ed
f3
f7
06
08
03
fc
fd
02
05
04
fc
01
02
fb
fa
fe
fe
03
f3
f4
eb
f0
e6
e5
dd
e7
e9
f0
fa
05
07
02
00
ff
04
ff
04
ff
fd
01
06
11
0c
07
08
fe
f6
fa
04
07
f3
f9
00
09
04
06
0b
0c
02
fd
04
00
ff
ff
04
00
fd
0a
06
0f
12
10
0b
14
11
0c
13
0d
0d
11
0d
0d
03
04
0a
08
03
06
03
03
03
fd
01
02
fc
06
00
04
fd
fd
0a
04
0d
0d
0c
05
04
0a
02
02
05
ff
ff
02
05
00
00
04
fe
04
03
01
fd
05
ff
fd
ff
01
fb
01
00
02
ff
fc
ff
fe
03
fb
01
05
01
fc
02
02
02
00
fb
01
ff
03
05
fe
00
04
ff
01
fe
01
fe
fb
fb
02
ff
01
03
01
05
02
fb
03
fb
02
00
fb
ff
05
fe
fe
03
01
02
fd
fe
fc
01
01
fe
fe
03
01
02
ff
fb
03
04
04
fc
fd
fc
05
04
fe
01
04
04
fe
fe
fc
fb
fe
fe
02
02
fd
ff
fb
fe
f5
f9
f9
fe
fe
fd
ff
fa
fa
fc
ff
fd
02
04
05
04
02
01
fc
ff
00
fc
fa
fa
f6
f5
f0
f7
fb
01
fc
fb
ec
ed
f6
f5
f7
00
fb
02
fd
04
00
02
fe
ff
fc
ff
fb
f2
f1
f7
ee
f8
fb
08
12
11
0a
01
ff
ec
e7
e5
ea
f5
f5
01
fe
01
00
02
ff
fb
fe
f9
f3
ee
f5
fd
02
0f
14
13
1a
1e
23
1f
0c
fd
f6
ed
e7
e4
ef
fb
ff
05
00
fb
fb
02
f9
f5
f4
f4
fa
f1
08
11
06
01
05
16
1c
2e
2b
1a
03
0b
f8
eb
ea
f4
ff
ff
01
fb
03
fd
fa
f6
f7
fc
f1
03
0e
fe
f5
ee
ed
18
1b
27
27
1e
06
0e
02
0a
fd
fc
fb
fe
fe
fe
06
02
f3
f5
fa
02
ff
0e
0f
fb
fa
fc
04
04
0f
19
20
14
12
0b
13
1b
13
fa
fa
fe
fc
00
fe
00
fb
fe
02
fd
fb
05
01
ff
09
12
12
f1
eb
fe
11
24
1d
0b
14
1b
16
f6
f8
fc
01
03
08
03
fb
04
fa
ff
fb
00
f4
01
01
09
0f
e3
da
fe
07
05
0e
0b
1d
22
02
ec
f9
ff
00
fc
02
fc
01
fb
07
13
fe
fc
03
02
f9
02
fc
d9
d6
ed
f1
f8
16
10
21
1a
12
f4
05
00
fb
05
02
00
03
06
0b
03
f6
f9
00
f7
ee
fb
f2
e3
e3
f2
f9
0f
18
1c
2e
2c
19
06
fe
02
fc
00
00
08
07
0e
14
0a
08
06
04
f9
f6
f1
f5
f8
f1
f7
00
18
17
1e
21
1c
0c
01
00
01
fc
00
ff
04
07
10
0e
14
07
00
0c
07
04
fd
07
05
ed
01
12
1e
16
16
0f
07
08
00
01
02
fc
fb
ff
fb
09
12
00
0b
00
0a
08
00
04
ff
f1
f1
f4
08
0f
13
10
09
08
05
fd
02
04
00
fb
ff
fa
f4
fe
08
0e
09
14
0f
09
fb
f5
da
f4
02
00
fb
f2
f3
03
07
06
f8
f9
01
03
02
fe
ff
00
f6
f4
fe
06
0e
19
16
03
f4
e7
ea
09
04
00
e9
e2
ea
fd
04
07
ff
fa
01
04
fc
fc
01
fb
ef
e9
f7
0c
15
20
1c
0d
f2
db
e2
f8
00
eb
df
e8
ee
f9
ff
06
08
01
fc
ff
04
00
fd
fd
ea
ea
fe
03
11
14
1a
09
f3
e7
e8
fb
f7
e7
dd
eb
f3
f6
f7
06
fe
fe
ff
01
fc
fb
00
03
f4
ed
0b
01
0a
0b
05
05
ec
f2
01
f4
f5
de
d8
e4
ec
e8
f7
f7
fb
fc
fd
04
fd
ff
fe
fb
f7
f7
06
0f
0f
0e
13
0f
fe
f0
f3
ee
f0
e4
d8
e2
e6
ea
ee
f4
f8
fa
ff
01
ff
fc
fc
02
f7
f2
fe
0e
1a
19
1c
1b
15
08
04
f7
ea
de
dc
e9
da
dc
e7
f3
f2
fb
02
fb
02
05
fe
fe
fa
f4
f5
ff
12
1b
1e
21
2b
1f
11
02
f7
ee
f0
df
d9
e0
f0
fc
fc
fa
fd
fd
ff
04
fd
fd
fa
fb
f9
fa
fc
09
08
15
1f
28
1f
03
fd
fb
f0
f3
ed
f2
f4
f8
fc
01
fb
fc
fe
03
03
ff
05
03
07
02
01
04
04
0a
0f
0e
05
03
03
fe
fd
02
02
04
ff
fe
fb
fb
fe
00
00
00
fd
00
01
04
04
ff
04
0f
0f
0d
05
0c
06
0b
0b
0c
01
05
04
02
fe
ff
00
01
03
fe
05
02
fc
fb
03
00
ff
ff
03
ff
fd
05
ff
04
fe
01
ff
02
01
03
fd
fd
05
fd
02
fb
01
00
fd
00
01
00
04
fd
02
05
fc
fc
02
fe
00
fc
04
00
00
fe
02
00
fe
01
fe
02
fb
fe
fc
02
fc
04
01
03
fd
fc
ff
00
03
09
06
02
08
04
02
04
06
03
00
03
08
07
06
fd
04
01
fc
00
fb
01
fd
fd
01
04
03
00
0b
0d
07
0f
13
11
0b
09
10
0c
0c
07
0d
0c
09
06
04
04
fc
fb
fb
02
fd
fe
00
03
01
06
0a
13
0f
19
23
1a
23
1c
13
13
0c
12
0d
09
06
04
06
07
01
fe
00
03
01
00
fd
05
01
07
07
11
0b
12
0c
0e
08
02
fb
f6
00
05
03
fd
04
07
01
f6
fd
fb
fe
ff
fe
02
ff
03
04
08
05
0e
09
08
f0
ee
ef
e1
e3
e7
f7
fc
00
fc
00
f9
f9
fa
fe
ff
04
03
ff
03
ff
04
04
07
13
0a
f9
f2
ea
e5
df
db
dc
f2
f7
ff
fc
fe
08
f9
eb
eb
fa
00
00
05
01
04
04
03
0a
11
17
0b
04
00
ef
f5
e6
e3
f0
00
09
06
fe
00
ff
f4
ea
e5
f2
f7
fd
ff
01
05
0e
12
17
12
1c
17
0d
05
05
05
fc
0f
12
1f
0a
00
fc
01
fa
01
f3
df
ea
fb
01
ff
ff
04
10
17
1b
08
13
0d
06
fb
01
0f
19
24
14
0d
fb
f3
fd
0b
f6
01
f5
e7
e5
f8
fc
fe
02
01
12
0f
10
01
06
03
03
01
0f
0b
25
21
03
01
f6
02
00
0b
04
03
07
f2
ee
fa
fe
04
fd
0a
09
06
f6
f7
08
07
06
0f
16
0c
1b
0c
ef
e8
ee
00
03
0b
0b
0b
1a
03
eb
fb
01
00
02
00
03
ff
f6
fc
fb
07
01
0a
10
fd
ff
fa
f9
f8
fe
ff
02
07
fa
17
1f
0e
fe
fa
fd
fc
04
fe
fe
f9
fd
04
f4
f5
00
0c
08
f7
f5
f9
f5
fc
f1
f9
07
fa
06
1a
2a
1e
02
fb
05
00
04
06
00
ee
02
fa
f8
fa
09
14
09
06
fd
fe
00
ef
ed
02
00
05
1d
26
2a
24
fe
fe
ff
01
04
05
f9
f1
01
02
fa
f1
fe
0d
07
fa
00
f8
01
e7
f8
fd
03
1c
20
23
22
1d
06
fb
fc
fd
fd
04
f7
f2
05
05
08
05
0a
08
0d
f7
f2
f6
fc
f9
f8
fe
0a
07
0d
17
0a
06
08
02
ff
02
fe
ff
fa
f2
f8
f5
f1
fb
01
0c
0b
f9
f0
f0
01
fe
0b
0c
0d
08
0a
10
07
0e
05
ff
06
05
01
04
f8
f3
f2
e8
f7
fa
02
0c
ff
f8
f0
fa
fe
0b
1c
18
09
01
00
02
fe
f8
ff
03
fe
03
02
03
fb
f6
ef
e5
ed
ff
fd
fe
07
0d
0b
08
03
05
16
0a
09
f9
ef
fe
f8
fd
fb
01
fd
fd
fe
05
01
fc
f4
ed
f4
f7
ff
05
07
17
14
18
14
f8
fe
fd
f9
ea
e3
ec
f0
f8
ff
01
ff
00
fd
fd
fe
f9
f5
f1
f3
ef
f7
08
02
21
17
0e
01
03
fe
fd
ed
e3
df
e7
ed
fa
fa
04
fb
fc
02
01
02
fb
f8
02
fa
f8
fe
03
ff
12
0a
fe
0a
01
fd
f0
e9
ee
e3
ec
f0
f7
02
ff
03
02
03
fc
fa
00
07
16
14
f9
fb
01
00
06
f9
fb
fa
f6
f5
eb
e8
e8
ef
f3
f9
fa
02
02
00
ff
02
fb
00
08
0f
10
0c
09
fd
fb
f5
ff
f4
f7
f3
fb
fe
f1
ee
f4
f6
f8
fc
fc
00
ff
fb
01
01
fc
06
07
0d
05
09
15
0f
03
12
0f
01
05
04
0a
02
08
06
01
01
fc
fc
04
ff
01
05
fb
ff
fe
ff
ff
fe
06
07
05
0e
09
0d
0b
0f
1a
14
0e
13
14
0b
01
07
03
fd
fc
fe
fd
00
00
fb
03
03
fb
04
fe
04
07
04
06
02
02
00
02
08
fe
06
00
06
05
00
01
fd
05
fd
02
04
fb
fb
fc
ff
03
fe
fe
03
04
03
04
fb
fc
01
fc
ff
03
05
ff
fb
fd
05
ff
fb
fd
fd
ff
fc
fe
05
fe
ff
03
fb
ff
03
07
02
02
00
06
00
ff
ff
06
07
fd
01
01
fe
fd
fe
fc
04
fc
03
04
ff
05
04
fc
03
04
09
04
0d
0d
10
0d
0f
09
0e
0d
11
09
04
08
07
05
04
04
fe
03
02
fe
fd
fb
04
01
03
01
06
16
1b
22
2c
2d
27
20
1b
19
1a
22
1b
13
13
0e
09
0a
ff
02
fc
fc
03
01
00
fc
07
08
13
14
26
2c
2e
2d
16
1f
1a
17
1a
1a
11
06
05
ff
fd
0a
07
00
01
ff
00
fb
05
ff
fb
02
0e
0e
0c
17
16
12
03
00
fe
03
01
f9
07
09
f7
f9
f1
04
05
03
02
05
fc
fd
04
03
fe
01
0b
0c
10
08
04
0b
fc
0a
07
fa
ee
e2
f6
f1
e5
e8
f2
0b
10
08
00
01
ff
ff
ff
06
07
00
0b
18
10
05
0c
08
04
0d
0e
f3
df
e4
e4
e5
f2
f4
f6
09
16
06
fd
03
fc
00
fb
02
02
01
fb
03
fe
0a
0b
06
0d
06
fb
ef
e1
d6
e7
ee
f4
f4
fc
14
17
0a
01
fd
fb
fd
00
fe
0b
0c
07
0a
08
03
07
07
02
04
f4
e8
e3
d9
ea
f2
02
06
08
14
24
0d
ff
01
00
fa
00
05
05
11
09
0e
fc
00
03
0a
01
fd
e5
ec
eb
ee
ee
fd
f9
f5
0f
1b
20
0c
02
02
03
f8
fd
02
0c
05
03
f9
ff
fd
03
0e
10
0a
f9
fb
f7
f8
00
ef
ee
ee
0a
21
1c
0e
05
03
fb
fb
fa
f9
03
fe
f6
f1
00
09
0c
16
22
1b
fe
03
01
f5
fb
f1
e6
e1
f5
08
0b
07
04
fd
00
fb
f9
f0
f8
ef
f4
00
09
07
13
22
33
20
0f
0d
03
08
01
f6
ec
ea
fa
05
07
05
01
fb
fc
fd
ff
f3
e8
f6
f0
ee
f0
04
07
16
28
20
1a
19
09
08
f3
ea
f2
f3
f0
f7
06
0a
01
ff
05
01
01
f9
ed
fb
f0
ea
ea
f6
08
16
26
1f
1a
1c
05
06
06
f8
f2
ea
f1
0e
0e
01
fd
01
02
05
0e
04
f5
fd
e1
df
f1
fe
0f
15
13
16
0e
0b
02
0a
0b
f9
fa
00
11
16
19
0b
00
fe
03
ff
0d
0d
08
14
03
f9
f7
f6
06
04
04
fd
00
03
0b
08
0f
04
0d
0d
13
11
0a
03
fb
00
fc
fc
0d
17
20
25
19
02
fa
fc
01
09
09
04
07
16
11
03
0c
12
18
1a
23
19
07
fd
02
01
01
04
0c
1a
2b
1f
1a
15
09
12
07
0a
11
10
10
0b
16
11
09
17
2a
30
27
10
02
04
02
ff
ff
fe
0a
18
16
1b
1e
13
17
07
00
fa
0a
0d
14
0b
06
17
0b
1e
25
29
27
09
05
03
01
02
02
ff
09
0c
01
08
0b
03
05
fd
03
fd
0d
12
0d
07
1b
17
12
1a
13
25
1b
01
06
03
ff
05
fc
03
0b
13
f9
f8
f3
f1
fe
f9
01
fb
00
ff
05
04
09
0a
0b
12
19
18
10
07
05
03
03
04
fd
06
04
05
f6
f1
ee
fb
f8
ec
ec
f2
fe
00
fd
0d
00
15
18
14
1a
15
0d
02
07
fe
00
02
02
fe
07
fd
f1
ef
f9
02
08
07
0d
11
17
1c
16
1f
12
13
12
09
05
0b
03
01
02
02
fb
01
fc
02
02
fd
fa
f7
fc
04
08
16
15
1c
1c
1d
1d
1f
17
0e
0d
02
07
00
06
02
fd
05
ff
01
05
fb
04
fd
fa
00
fc
f9
fc
02
03
01
fc
f9
f2
fb
fd
f5
f9
04
fd
04
04
04
01
01
01
fb
fe
fd
ff
fd
fe
fc
fc
02
05
fc
fc
ff
fc
f9
03
02
02
fb
fb
03
fb
fa
fc
02
ff
fd
04
fd
00
03
02
04
ff
03
00
01
fd
03
01
01
ff
02
fb
04
04
03
00
fb
ff
fc
fe
04
ff
05
fd
fe
fc
02
02
03
04
03
fb
00
04
02
00
fc
fb
06
00
02
fe
fe
02
04
fe
02
02
ff
01
02
05
fe
04
00
02
fc
03
04
00
fe
01
f8
f6
01
f8
fb
fd
f7
f4
f6
f3
f6
f8
fe
fe
04
fc
fb
fe
05
05
ff
ff
01
ff
ff
fd
ff
05
fe
f2
fe
fa
f5
ef
e4
dd
d7
df
e8
e9
fc
03
01
fd
03
00
ff
02
04
02
fd
04
00
fe
05
06
04
01
0f
05
f6
e5
d4
c8
cd
d4
e1
eb
f3
f8
fc
f9
fc
fb
04
00
fc
00
08
04
10
0a
0a
06
0c
18
12
11
ff
05
e6
d3
d3
de
dd
ea
e6
f2
f5
f8
03
01
ff
05
fd
03
06
00
09
07
01
09
0c
11
0e
14
12
05
12
f9
ea
cc
cb
de
d7
e5
e8
f9
03
ff
fe
fb
01
06
0d
f7
01
f6
f4
01
07
04
0c
1e
1e
1a
19
00
e7
d2
d0
d0
ca
d3
e4
ec
fd
fb
fc
03
01
0b
15
fb
f6
f7
fe
f5
06
fa
0c
1d
34
2f
1d
15
f3
d5
c5
c8
cb
c5
d6
ef
03
fd
fc
01
00
0a
09
0b
fb
f2
f8
07
12
01
0d
1f
38
38
2b
21
06
e5
c9
b9
d2
c9
de
f2
f9
03
fc
fd
09
10
05
08
ff
01
fc
01
0e
0c
0a
23
36
2f
1f
16
09
ef
d7
c8
d6
da
df
f1
f8
ff
04
02
0a
0e
08
09
00
08
00
07
0f
14
03
18
2e
21
0e
17
1b
06
ef
d8
e1
e3
e9
fd
01
ff
fb
03
06
08
15
0a
f8
02
01
01
f5
fb
f0
04
28
28
11
13
15
fd
e0
dd
e8
ea
fd
06
01
fe
fd
fc
04
0a
11
fd
f3
fa
fe
f9
f9
ee
f1
07
28
1c
14
15
0e
ef
d8
dc
e7
f5
04
0d
08
03
00
01
fe
05
07
f4
ec
ee
ee
e8
ec
f4
f7
10
0b
0a
03
0a
09
f2
e3
ea
f1
03
06
09
0f
02
00
02
02
fe
02
f2
ee
ea
f9
f7
fc
f9
fb
06
ff
01
0e
05
f5
e3
ea
ed
fc
ff
08
07
07
fd
ff
fb
00
02
01
f2
f6
01
09
07
07
05
f9
fd
05
fc
0e
ef
e7
ed
ea
05
02
fa
03
0e
08
07
ff
02
01
04
f9
f3
fc
f4
fc
fe
07
fb
01
00
0b
02
f6
ee
ec
f5
03
03
09
00
09
18
0a
00
fe
fc
fd
fb
ff
f7
fb
ed
f0
f7
fb
f8
f9
01
10
00
eb
fa
fe
04
0e
13
16
04
08
10
04
ff
03
fe
04
00
f6
ee
ec
ed
e7
ec
ff
fe
09
0f
00
f2
fc
03
ff
0a
11
0d
0a
02
0d
09
03
fc
fe
fc
fd
f8
f3
e9
eb
f2
ed
ec
ff
07
0e
03
05
f6
00
f6
f3
09
0e
0e
04
00
0d
08
ff
01
01
fc
fb
f8
f9
ed
e4
eb
ef
f3
0c
fd
ff
fc
f8
fb
ff
f0
f1
06
0d
08
fa
ff
0c
07
fc
fc
04
00
03
00
f3
fb
f2
ec
fe
f9
fe
f7
fb
03
06
fd
f6
f6
fd
fb
03
05
06
ff
08
fe
fc
fc
fc
fe
fd
ff
01
02
fa
f9
fd
f5
f7
fd
0e
08
08
02
01
fb
00
fc
f8
0e
11
0b
0a
fe
ff
05
02
fc
05
fd
02
0a
0b
01
f9
ec
ee
ef
ee
f0
f2
fe
f4
04
f6
ff
08
15
0d
07
02
05
ff
04
05
fc
04
01
00
08
0b
15
16
03
f1
f4
02
08
08
fc
05
0b
0e
0d
17
13
03
01
fc
05
fe
fd
ff
fd
ff
ff
02
04
04
06
0d
14
15
1f
21
25
34
29
22
22
1e
16
11
07
05
fd
04
01
00
fd
01
01
01
fc
fe
fc
fd
fe
fd
06
fe
00
03
01
06
07
03
04
0a
02
02
06
01
fc
04
fc
fb
fd
01
04
fc
fd
05
04
02
fc
03
00
fc
04
fd
01
fd
04
00
ff
03
05
00
04
fe
fd
fd
fb
05
01
fc
fb
03
00
fc
00
00
04
00
ff
ff
01
04
06
03
07
02
01
ff
fe
ff
01
06
fb
04
03
03
03
03
04
02
ff
02
00
00
08
0a
05
02
09
0d
12
11
15
13
14
0e
0b
09
0e
06
04
04
fa
00
fb
fe
02
00
03
fd
04
04
0d
03
01
fc
05
05
15
18
0c
15
14
0f
14
18
0d
0a
04
02
fa
ff
02
fd
ff
ff
05
04
ff
0a
0b
07
fc
fb
f4
f9
04
fb
02
fe
fe
fa
03
02
fc
fa
ff
f4
ff
fe
fb
fc
01
04
00
06
06
0f
0b
02
f8
f1
e6
06
15
18
1e
0c
ff
ed
ee
ea
e1
ec
fe
ff
f6
03
00
01
03
03
01
ff
0c
06
f9
f7
f7
f1
fc
00
1c
25
27
0d
e9
df
db
da
e1
f3
fd
fc
f6
f9
01
ff
02
03
fc
03
08
00
fc
e6
f4
f6
f7
0f
1b
34
22
f8
e6
ce
d9
de
e2
f3
fb
ff
fb
01
fe
02
ff
ff
08
08
00
f6
f8
ed
ed
e9
ea
05
21
2d
1f
e8
d9
c6
c6
e0
e2
ef
f4
fa
f9
fe
ff
fd
fb
05
04
08
f2
ee
f8
eb
d8
dc
ee
0b
2e
3c
10
d0
c7
d3
db
e6
ee
f1
ea
f1
f7
f9
06
03
04
05
03
04
f7
f3
f8
e6
e0
ef
06
1b
40
2c
ea
d3
db
e4
f1
ef
f3
f1
eb
ec
f4
f6
fb
fe
fe
07
08
ff
f6
f1
f0
ea
f9
07
1f
2e
2d
ff
d8
d1
e9
f0
ff
00
fa
fb
f6
e0
e6
f0
fa
02
02
03
0a
01
f8
f5
f9
ff
15
1b
2b
2d
1a
f4
e3
e0
ec
f6
ff
03
06
08
f6
ea
ec
f7
fc
02
ff
fd
06
fc
03
08
f9
06
1b
23
0e
11
fe
f4
ec
ec
f0
fc
07
0c
0c
08
05
f5
e5
ee
01
00
05
fb
03
f9
04
ff
ff
14
21
10
08
0b
f4
fd
ef
f7
f3
01
06
0b
1c
12
04
f1
ed
f1
fe
fc
fe
05
03
f9
fc
fc
05
12
0f
10
13
05
f4
00
ea
f2
01
08
06
0d
10
14
01
eb
ed
f2
fb
02
03
fb
fc
fe
fc
f4
01
03
0f
0d
16
f1
f9
04
ee
f3
fa
07
01
00
05
03
fa
ee
e8
f4
fc
fe
02
03
02
f5
f4
ee
f2
fa
01
0b
03
f9
0b
0b
f0
01
ff
fc
01
f7
05
08
f9
f0
e6
fc
fa
ff
ff
fb
fc
f7
f5
f0
e5
f8
fe
fd
fa
02
0c
fc
03
00
fc
08
f9
f7
01
06
fd
e7
f4
fd
fd
02
04
ff
fa
f7
ed
ef
f3
f1
03
02
0c
11
05
06
03
00
f6
0d
02
fe
05
00
03
fb
f3
02
fd
fd
01
fb
fb
ef
ec
e8
f4
f2
fc
f9
05
15
08
12
07
07
03
13
0a
02
ff
f9
fd
f8
ff
04
03
03
05
01
fc
f0
e4
df
e8
ed
e8
eb
f5
07
05
0e
10
07
fa
13
0b
04
fb
fb
fd
ff
fc
02
ff
02
fb
fd
fc
f7
f4
e8
ed
f4
f5
f6
00
05
00
fe
14
14
0a
10
0c
0b
fc
f6
01
01
00
04
fc
00
05
fb
fb
fe
fa
f7
f7
04
0d
03
11
13
00
0b
16
0c
0b
09
08
0a
f9
f5
f5
00
ff
fc
00
ff
00
01
02
fb
00
02
02
08
15
10
0e
fb
f0
fd
ff
fa
03
08
06
fb
fd
01
02
03
03
fe
00
fb
fc
fd
03
01
01
07
03
03
02
fa
fb
ed
e4
e8
e9
ed
ec
f2
f9
f9
02
08
fe
fe
00
fe
00
fb
01
05
00
05
fb
fc
fd
04
fc
fe
f6
f7
f2
ef
f7
f7
f9
fb
fa
04
01
02
fd
fe
fc
fc
fd
03
fe
fc
02
ff
fc
04
fb
fb
03
03
fe
02
fc
fc
fe
fe
03
fc
04
03
fe
fe
01
00
fb
04
04
04
02
fc
fd
fe
01
03
00
fb
fd
fe
fd
03
00
fc
fd
fc
fc
02
fd
fc
00
00
fc
01
00
01
02
fd
fb
03
05
05
03
05
01
fb
01
fc
fb
00
fc
fb
02
fb
ff
fe
01
00
ff
fe
04
fc
fe
04
00
03
fe
03
fc
fd
fb
fc
02
01
fe
fc
fc
fb
fa
f2
f7
f3
f8
fd
05
00
fc
fe
ff
01
00
01
04
03
fd
fe
ff
00
fc
fe
01
f1
f1
ef
ea
e9
e2
e4
e4
ef
f1
fc
01
ff
07
04
05
fb
fe
02
fc
fd
fd
ff
fd
fa
00
fe
f2
e7
ea
e2
e5
ea
f3
f5
fd
01
04
09
08
03
06
0c
11
0f
04
ff
04
02
02
fc
fd
fe
fb
f4
e8
e4
ef
e9
f6
fd
f3
fa
e6
e8
f8
ee
02
0a
04
04
13
12
0c
fd
04
fd
fe
03
01
f9
f5
f4
ee
ef
ef
ee
03
04
fa
fe
f1
e1
f2
f1
04
0e
08
10
21
27
15
0a
05
02
ff
03
f6
f5
f3
ec
f3
ef
f8
01
06
02
fc
ff
fe
02
06
00
03
07
0e
0f
27
28
21
08
fc
00
00
fb
f5
f0
ec
f8
f5
f0
fb
fc
05
07
13
09
07
06
05
10
0c
04
11
0a
1c
3f
2b
0a
04
fc
fe
00
f4
ee
ea
ed
ee
f2
f1
ec
fe
05
0e
06
01
00
05
05
09
09
15
13
1c
3a
2f
0d
ff
ff
01
f8
ec
f5
e3
e4
eb
f7
f7
f3
03
08
00
fc
fb
f2
ec
f2
fc
04
10
12
1b
30
2a
0c
fc
03
00
fc
f0
ef
f6
f0
fd
08
05
05
12
0f
01
f9
ff
fd
e2
e6
ea
f4
03
04
20
20
19
0b
01
03
fe
f9
f8
f3
f4
08
0e
09
0d
0b
0e
13
13
05
08
fc
ed
e2
e2
f4
04
f7
0b
05
03
03
02
01
fc
00
fc
f9
fa
fe
07
12
1f
11
0b
0b
0e
1a
19
0e
00
e6
f4
02
f9
fc
f7
f0
f2
f5
fe
ff
02
fb
03
fd
05
f9
02
16
16
16
10
06
14
1e
19
15
08
ec
ee
ef
f3
ed
ef
e8
f1
f6
fd
04
04
03
ff
f9
ef
e9
ef
0d
21
1b
09
13
10
26
13
15
07
f4
eb
e7
ea
f2
f6
ed
f6
f4
fc
fb
00
fb
fe
ee
ee
e4
da
f6
fa
07
06
10
16
18
19
15
05
f4
e7
e0
e2
ea
e1
e4
ec
f1
00
fe
fd
02
f9
f3
ec
e8
e2
e9
fc
fe
05
09
14
20
1f
1d
06
f2
e0
ea
ea
dd
eb
e6
ea
f6
fc
ff
00
fc
f6
e5
f6
f4
ee
df
e7
f1
04
0d
1a
18
13
0f
fd
ef
e5
e7
e3
de
e5
ea
f0
05
01
04
02
fe
e9
e7
eb
f0
e9
ed
ed
eb
fa
fd
0e
17
11
03
ff
ff
e9
e6
d8
da
e6
e4
f7
fc
02
fc
01
02
eb
de
e8
e4
f0
f3
eb
fb
fe
03
0e
08
08
05
09
ef
ef
dc
db
e4
f1
f1
f5
f9
01
fd
fb
01
f2
ee
f1
f4
f9
01
fe
03
0f
05
0a
03
fe
eb
f7
e7
e9
e6
ea
f4
f0
f1
fe
00
00
fb
04
ff
fb
f8
f5
03
fe
fc
07
0b
19
1c
17
11
00
f2
f3
eb
e8
df
e4
eb
f5
fe
ff
fd
fc
ff
02
ff
fb
f6
f3
f7
fd
08
0f
17
0b
17
17
0d
ff
09
f9
f1
f6
ee
f0
f4
f8
f7
00
fc
05
05
03
fc
fb
f9
f8
f4
02
0b
1a
1d
19
11
15
0c
0f
0d
fd
0b
09
02
f6
04
ff
f9
fd
03
04
00
04
fe
00
01
f7
f3
f7
f6
05
10
0c
01
0c
0e
07
07
0c
12
05
03
02
01
fe
fc
01
02
00
05
ff
04
ff
fe
00
f9
fe
fd
00
fd
01
fa
f3
f5
f5
f9
01
fb
fb
fa
00
fb
ff
04
00
02
02
03
02
fb
00
00
fe
fc
fc
02
fe
fe
01
03
01
00
04
00
fc
01
fe
05
fb
fc
03
fd
03
fd
02
04
02
fd
02
00
ff
fb
fd
fe
04
fc
fb
fc
02
fb
fb
00
fb
01
ff
05
fe
fb
fd
00
fe
05
fc
fb
02
ff
03
01
02
03
ff
fd
fe
ff
fb
04
02
fe
04
02
02
03
01
00
04
02
03
03
fd
ff
04
ff
fe
fe
fc
03
03
fd
fa
01
01
04
00
ff
04
05
04
04
fb
01
03
03
fe
01
fc
04
00
04
01
fe
03
03
fd
00
fc
fb
01
fa
02
fd
00
fc
01
05
fc
fc
fd
f8
f9
fd
01
07
03
04
fc
fd
01
fc
02
00
fb
fb
ff
ff
fd
fa
01
01
fb
06
04
03
04
0a
0a
07
0c
08
0b
08
09
ff
04
02
02
fd
01
fe
fe
fd
fc
ff
01
02
10
0c
f5
03
fc
f0
e4
e9
ef
fa
00
0d
10
15
07
05
04
01
01
fb
03
00
03
fe
fe
00
fa
01
06
01
01
10
ff
f2
df
ce
e1
f5
0b
13
0f
14
0a
07
03
fb
ff
02
03
04
02
05
f9
06
02
fa
fe
07
09
0e
ff
ec
e6
d8
e2
07
0a
03
02
0b
14
06
06
02
02
04
fd
01
0b
05
ff
fe
06
00
0a
08
15
16
ff
ea
e3
d9
f2
13
07
10
06
0b
0f
09
0b
01
fc
04
04
07
0c
0d
0a
05
04
06
08
0a
1a
1b
10
f5
dd
e4
0a
22
14
11
17
0f
0c
11
09
03
fe
fe
06
07
07
08
07
01
01
03
0c
16
22
2d
0f
e8
d9
ee
10
20
19
11
17
0d
0a
03
05
ff
fc
01
01
07
09
0d
04
0f
11
07
12
19
2d
2f
02
d8
ca
f1
14
21
0a
0a
0b
0e
07
ff
03
fd
00
04
05
09
05
fe
05
14
23
1e
1b
26
2b
1a
f2
d0
da
fb
1b
14
ff
01
04
0d
04
06
01
01
fe
04
ff
09
ff
00
0c
18
16
17
1b
15
18
f3
d7
d6
eb
fa
09
01
f0
fb
f6
04
09
07
02
01
02
03
fe
02
04
03
0e
0a
0e
0c
04
0b
ec
cb
c8
e9
ff
f5
01
f3
ed
ef
f2
08
08
fd
02
ff
fe
03
fc
04
02
01
09
07
07
ff
fc
f4
d5
c8
d8
f8
00
fa
fb
f8
f5
f8
fe
07
07
ff
fe
fc
fc
ff
03
05
08
00
02
07
ff
f4
e9
db
ca
cf
e3
f9
06
00
08
fb
05
ff
0c
04
fc
fe
ff
01
fc
fb
04
01
05
fe
fc
f4
fd
f1
e5
df
dc
e2
e9
fe
03
05
0a
0a
06
06
0a
fd
fd
fa
00
03
fc
ff
fd
05
fb
00
f8
f0
f3
f0
e3
e6
e4
f2
ee
fd
00
0a
0a
0e
05
00
07
fd
ff
02
05
ff
fe
ff
02
02
fb
06
fc
fe
f5
f5
ec
e8
e6
ea
ef
07
fe
03
03
fc
0b
07
f7
f1
f6
ff
ff
00
02
01
ff
01
fa
01
f7
fc
ff
fc
f3
f9
f9
fa
ff
ff
f8
ff
05
fa
09
04
00
f4
f7
fc
00
04
00
05
fc
fb
ff
03
03
05
03
0c
03
05
07
08
07
f7
f5
f7
01
09
0b
10
04
00
fd
06
02
fb
04
03
fc
04
fd
ff
05
10
16
0c
10
17
06
00
04
fe
fa
fa
00
10
0e
03
02
f7
fe
fd
02
04
04
fb
03
04
03
05
08
10
12
10
19
13
0d
06
ff
03
ff
02
08
0a
09
02
01
fc
fb
fb
01
02
fb
00
03
fd
03
01
0a
0a
08
08
0f
06
03
0e
07
0c
07
09
04
08
03
f8
fd
00
00
01
fe
fd
05
00
ff
00
fe
03
00
fd
fa
01
05
00
06
11
16
0d
11
14
0b
09
fe
fb
01
02
04
ff
ff
fe
03
ff
01
fc
02
f9
fb
f5
f2
f9
f9
ef
f0
f8
ff
ff
03
00
ff
00
06
fc
ff
03
03
fd
00
ff
fc
ff
01
fe
fd
04
fd
00
04
fe
fc
fe
fa
01
00
01
02
ff
05
06
ff
02
ff
07
fc
ff
00
fc
fc
03
fc
00
05
fc
05
04
ff
02
ff
fd
03
01
02
05
ff
ff
fc
fb
fd
fd
04
fe
ff
04
fe
00
fb
04
fb
03
00
fe
ff
fb
fc
02
04
02
fc
fc
00
fb
fa
f9
03
02
fd
fe
01
01
01
02
01
ff
01
03
ff
01
fa
fb
fb
01
fa
00
ff
ff
f8
01
f8
fd
fd
fd
fd
fa
fc
fd
06
01
03
fd
03
fe
02
02
05
01
ff
04
04
fc
fc
ff
fa
f8
f6
f6
ed
f8
f2
f6
f1
f9
01
fe
04
04
ff
05
fb
01
ff
05
03
fc
ff
05
00
ff
f7
f9
f4
ef
eb
f4
f2
ef
f3
f3
f7
ea
ef
fe
07
06
07
04
05
fb
02
fe
02
fd
fa
fe
01
01
ff
0b
0c
ff
ff
05
fd
fe
fc
f5
f1
ee
e9
f2
f6
06
0a
04
02
04
01
02
ff
00
ff
f8
08
06
0e
0f
08
00
08
0c
fe
fd
05
ff
03
f6
fc
f8
02
01
0e
0c
0b
05
fd
02
fe
06
00
f5
05
0c
12
13
0a
08
04
00
f4
f5
fe
05
04
08
00
04
08
0a
0d
12
07
04
04
fc
02
03
0a
04
17
16
15
15
0c
00
0a
f7
e7
ed
fd
f5
02
0a
ff
06
06
ff
06
0b
06
ff
00
01
ff
07
02
05
19
1b
16
0e
05
ff
06
f3
e2
ee
04
fa
0d
04
00
04
06
00
f9
01
01
00
01
03
00
04
01
09
18
12
14
0b
15
0d
0b
fd
e9
f8
07
08
fb
fc
04
fc
fe
00
f1
fb
06
fe
01
05
fd
03
fd
0a
1e
1c
17
15
18
17
18
0a
f0
fa
16
14
f8
fc
f6
f5
f2
f8
fc
f3
fd
fc
03
fe
00
01
09
0b
11
10
12
19
04
0f
17
f8
e2
f3
14
15
fd
fd
06
ff
fe
fc
f6
f9
03
05
01
ff
00
00
00
14
16
0f
0b
03
07
16
0d
e9
dd
f7
0a
02
f8
02
0a
18
12
06
fa
f5
ff
01
fd
fe
02
03
0a
14
12
13
04
00
02
0c
02
db
e5
fc
00
0b
0d
10
15
12
09
16
03
f9
f8
fc
03
02
fd
fc
03
04
02
08
fa
fc
f8
f8
ec
d5
de
f6
0a
09
17
10
0b
07
0c
1c
08
f0
f8
fc
03
01
05
fa
fe
fb
fc
01
01
03
ec
e3
d1
d7
e9
06
1d
20
21
0e
05
03
05
09
00
f7
f5
fb
04
fc
02
fd
00
f9
f7
01
fc
f9
f1
e3
d7
da
fc
1c
26
1a
13
16
f9
fb
f7
f3
f4
f9
01
f9
fe
fe
04
fe
fa
fc
f0
f7
fb
f1
e4
d6
d9
ee
0f
27
17
0b
03
09
f9
f8
e8
e6
f1
fe
f9
03
04
fd
fc
fb
fb
f0
e5
e9
e8
e6
dd
d3
e5
f4
10
23
12
01
ff
fb
f9
ee
e2
d9
ee
00
00
fe
fd
fe
02
01
f5
ef
e1
d9
d7
e2
e1
e7
f1
0b
16
1f
0f
07
06
fe
f5
ec
e3
e8
ed
01
fd
fe
01
01
05
01
f5
f0
e8
df
da
ed
f7
f7
06
0b
11
0d
17
0c
0d
04
f8
f4
f7
f1
f9
01
05
04
fd
00
fc
ff
f9
ef
e9
e8
f2
01
fb
00
f6
08
00
08
04
08
05
01
04
f9
06
f7
fe
05
04
fe
03
01
00
fe
f8
f8
f7
f2
f2
f4
fb
00
01
fd
f4
08
07
10
0c
0a
0b
09
09
04
fe
fc
fb
fd
03
ff
fc
04
f8
fc
05
fa
f7
f8
00
01
fd
fc
fb
fe
0c
0b
0a
05
10
07
09
04
02
01
fd
03
fb
04
02
ff
02
04
fc
02
fb
ff
04
07
08
04
01
11
17
0b
02
09
fd
fc
00
fd
fc
04
02
00
03
03
03
02
fc
fe
02
00
02
02
07
03
06
00
0f
07
0b
0a
02
05
ff
00
fd
fd
fe
02
ff
fc
ff
fe
04
ff
02
05
fc
02
00
04
01
03
fb
05
ff
06
fe
03
02
06
fc
05
06
03
05
04
00
03
00
01
fc
ff
fd
fd
fd
fe
01
00
02
02
ff
04
fd
fd
05
03
03
fb
04
fc
01
fd
02
fd
fc
fb
fc
fe
00
fe
fe
01
04
00
07
00
05
00
01
03
02
fe
07
00
02
fc
ff
02
00
00
01
ff
fb
00
01
04
fd
fd
fc
03
fb
06
07
0a
05
0d
0a
0f
13
0d
0f
11
0c
08
06
07
09
01
ff
ff
01
fe
02
01
04
00
fe
fe
fc
00
03
02
04
05
0d
07
17
08
0b
0b
0a
fd
01
fd
02
02
06
00
01
05
05
ff
ff
05
fc
01
00
05
ff
08
03
06
f4
f6
fe
fe
fd
fa
08
07
05
07
02
01
00
f1
f6
01
fd
04
01
fd
fd
00
f7
ff
f8
f6
f2
fc
e8
ea
f2
fc
ff
02
0b
1c
0f
10
0e
0b
09
fe
f6
03
04
ff
04
ff
fc
00
f8
f4
f9
ee
e9
ea
ea
ec
e6
ed
f9
fc
06
00
f8
f9
04
01
f4
f0
f4
f9
fe
fe
01
ff
ff
fd
fa
f9
f4
f1
f6
f5
fc
f4
01
fc
01
0a
0f
01
01
f3
fd
00
f4
f1
f0
f8
fe
04
fe
ff
ff
f7
ec
f5
eb
ec
f6
fb
00
fd
01
ff
14
18
11
fc
00
fe
fa
f7
f4
e3
e1
fb
02
fc
fc
00
04
fa
f4
ea
f7
f8
f9
01
f3
f9
f6
fe
16
1d
09
f9
fa
05
f4
ea
f0
e6
de
f3
ff
01
04
fc
fd
f4
f8
f9
f4
fb
fd
fe
fb
ed
e8
fb
12
0f
0e
f9
f8
f9
f4
f8
f7
ee
e1
f5
fb
00
05
04
01
f7
ff
ff
ff
fd
06
01
e8
de
da
e5
f0
ee
ea
eb
07
01
0b
09
09
f6
f0
f1
fd
03
00
02
02
f6
fe
03
09
0a
0d
f2
f0
ed
ee
ea
e6
ec
e8
e8
eb
01
0d
13
17
1b
ff
f9
fe
ff
fc
ff
02
fb
08
17
0f
13
0a
fa
f3
f6
fb
f6
ef
e8
e0
e4
ee
f0
10
21
25
29
06
05
01
00
04
01
00
05
15
19
14
13
06
fa
0a
05
fd
f1
ef
e9
e8
ea
ef
fc
14
21
25
28
09
03
05
ff
fd
fe
08
08
21
10
17
16
16
0f
13
15
04
f9
f5
f9
f3
f1
f7
02
0c
0b
11
1c
14
01
fc
03
fc
01
06
0c
16
17
10
11
1b
1d
24
0e
0b
09
05
0a
07
03
0c
0f
1b
08
0c
12
17
03
00
ff
fe
06
fa
02
0e
0b
0d
13
1d
29
14
06
05
04
fe
07
03
06
08
07
0c
0d
01
0e
18
01
fe
fd
fc
03
fe
04
fa
fe
11
17
1d
11
fd
01
02
05
03
0c
10
11
0c
09
0f
09
11
0b
12
03
fe
fd
fe
05
f9
ff
f4
fb
0e
14
19
13
10
02
01
ff
05
0a
11
05
11
12
18
16
10
0f
07
04
02
05
fc
ff
01
10
fc
01
0f
13
1c
1a
20
17
f8
02
0c
0f
0d
1b
1a
13
15
0e
05
05
03
ff
02
02
fe
03
0c
13
14
05
0b
10
21
23
18
0f
0a
08
02
00
03
12
06
14
0b
01
06
ff
05
02
03
01
03
ff
02
0b
15
10
0e
1b
1a
17
10
0a
06
fa
fd
f9
f0
00
04
01
05
01
fb
ff
01
ff
fb
fe
03
fc
02
fa
03
0e
07
11
0b
10
0d
13
05
00
f0
f2
ec
ef
ed
f2
f6
fd
fa
fe
ff
ff
fc
00
01
fe
fe
f2
f2
f2
f0
f0
f1
f1
e8
eb
e1
dd
d8
de
e3
e8
e9
e8
ed
f2
fd
fd
03
00
02
04
fc
fd
fe
fc
f6
f6
f1
e6
d6
d1
dd
d9
d9
da
e1
e1
e1
ec
ed
f5
f8
f5
fb
02
fb
04
04
05
fe
04
01
05
03
00
f8
f9
fc
fa
f8
01
f2
f7
fc
f7
fa
fd
fc
fd
fd
fb
fc
01
fb
fb
00
fd
01
01
fc
fd
05
00
ff
fd
02
02
02
fe
02
02
04
fb
01
fd
fe
fc
ff
f9
fc
00
02
02
03
fb
fe
01
fc
fd
fe
03
02
fe
fd
01
02
05
04
ff
00
03
01
03
05
02
00
fb
fe
02
05
02
fc
fc
05
fe
ff
ff
03
05
02
03
04
fa
fc
fb
02
06
04
07
fc
ff
00
fe
02
fd
04
ff
00
01
04
ff
00
04
05
fd
01
00
fb
fb
fd
fc
fe
fd
05
0c
0c
0f
00
00
f8
00
f8
fb
ff
02
02
ff
ff
04
05
05
fd
05
04
02
ff
fe
01
fb
05
0c
09
04
0c
0b
01
f8
fd
f9
f2
f3
f3
00
04
00
fb
ff
fb
00
05
00
fd
07
00
02
fc
f4
00
ff
02
05
0e
12
08
09
09
03
f1
f2
ef
f4
f9
ff
01
fe
00
05
05
fd
05
0a
05
07
09
ff
f6
fa
fc
fd
06
0e
fc
04
01
02
02
04
f8
f7
f7
00
01
fe
ff
03
04
06
0a
09
0b
10
1f
1c
0f
02
02
05
05
0f
06
01
01
09
0c
01
ef
eb
f6
ff
00
04
02
06
05
0a
05
06
0b
12
1c
1d
17
0c
17
17
0b
12
18
0a
14
16
12
10
f2
e7
f6
fd
04
fe
05
03
05
0e
0b
03
0d
13
17
16
1a
13
12
1d
13
09
1f
11
12
0b
07
0f
f3
de
f2
04
03
fe
00
06
05
0b
01
02
11
17
1b
10
06
01
e9
ef
0c
0e
15
08
fa
00
05
08
f9
e7
f4
fe
03
01
fe
02
06
07
ef
f3
01
19
0b
f4
d6
b9
aa
cb
03
14
11
04
fb
ff
fd
fc
fa
f5
fc
04
fc
01
03
04
fc
f5
e1
e1
e8
d9
cd
b8
a8
89
9d
de
05
0b
ff
f8
f8
f5
f4
ed
f7
f8
03
ff
01
fd
02
03
fb
dd
cb
bd
b2
a4
8e
94
a8
af
c7
fa
0e
03
fa
f6
ed
f0
f0
e7
f2
fe
0d
08
fe
02
00
fc
f5
d8
b3
a4
a2
98
a2
bb
db
e6
02
13
01
03
fd
f4
f4
f9
fe
ee
fb
0d
0d
0a
06
01
02
01
fa
e6
c5
c6
be
c5
e9
fd
13
14
1c
1e
07
03
02
09
06
06
0e
01
04
11
0e
07
04
fd
fc
04
f9
ef
e1
ef
ef
f1
02
11
19
20
22
13
07
02
09
13
12
04
10
06
01
12
08
0b
fe
fc
05
05
05
fb
fc
09
10
0c
0c
0c
16
23
29
12
02
04
0d
12
1b
02
07
08
07
10
0d
05
03
fd
fd
05
0d
0f
08
10
0c
18
0d
10
0c
1d
1b
15
fb
04
09
0c
0f
ff
f9
00
09
1c
13
06
02
ff
05
04
1b
1f
15
03
0f
0f
0d
09
0e
1a
1a
0b
f4
fd
04
fe
03
f7
fa
fb
07
0d
10
07
02
03
04
fb
12
25
13
12
10
0f
0d
06
02
08
16
ff
fe
fa
fd
f0
fc
f4
f3
f8
ff
09
0c
06
05
ff
01
00
12
1c
0d
0d
15
10
ff
f6
04
01
07
01
f6
ec
ec
ef
f7
fb
f5
ef
07
0d
08
04
ff
ff
fe
fe
0e
13
12
0a
0c
00
f7
fd
f6
fe
09
09
ff
f5
fc
fa
fe
f6
fa
fa
04
03
02
fc
fd
fd
04
fe
0a
15
23
1c
0d
03
fe
ee
f6
f9
01
05
04
06
00
f2
fd
fd
ef
fc
fc
fc
00
02
fb
fc
fb
04
fb
14
25
24
1e
fd
fb
f8
fe
0d
0f
fb
ff
f6
f3
f2
f3
e9
ea
f2
f6
ff
00
fe
fc
fb
05
02
02
11
15
1c
11
0a
09
07
0c
04
0a
03
fb
ed
e9
d8
db
e1
e9
f4
fd
04
05
fe
02
fe
05
fe
fd
01
03
00
0a
11
13
12
0e
18
07
07
03
f0
ec
e9
e6
e5
ed
f5
f8
04
fd
fe
02
fb
03
00
01
fa
f8
f9
fd
09
03
02
fe
fa
f9
fc
06
02
03
01
f9
fb
fb
fa
04
fc
ff
05
fe
01
03
fc
01
fe
fd
fb
03
fe
05
08
02
06
01
04
01
fe
fe
fd
02
00
04
00
ff
ff
03
fd
05
00
01
05
fb
04
04
04
02
fe
fc
04
01
04
03
fd
03
00
fb
00
fd
fe
fe
fb
fd
04
fd
ff
ff
04
03
fe
00
fe
00
fd
fc
fe
fc
fd
02
fe
fb
fc
fb
01
fc
ff
02
fb
01
01
04
02
fe
05
ff
00
02
fc
04
01
04
01
fb
01
fe
fe
fd
fc
ff
01
fe
fe
01
fb
fd
fc
fd
03
03
ff
ff
fb
fb
01
01
02
00
01
ff
fc
00
f9
f5
ed
ed
ed
ec
ef
ef
ef
f8
01
00
ff
06
0b
07
fc
fd
02
04
03
ff
ff
fc
00
fc
f2
e9
ea
e7
e1
e4
ef
f7
03
00
01
0c
07
07
12
19
17
13
11
ff
fd
fb
03
01
fc
fb
fc
f3
e1
dd
db
e2
e7
f3
07
0a
16
08
04
14
07
0d
19
1e
21
22
13
05
fd
fb
ff
02
fd
f8
f2
e7
d9
d7
db
d6
e6
f6
02
fc
04
04
ff
01
fb
12
12
0c
0f
27
16
0c
00
05
fc
fc
01
f4
e8
e1
d8
e1
ed
ec
fb
00
fa
05
09
01
02
fe
09
03
fd
10
12
1c
1e
0f
02
00
00
04
00
f5
e9
e2
e8
e7
eb
fc
fd
17
14
1d
09
02
fa
fb
fd
fa
f8
ff
f6
1a
2b
18
06
05
03
04
f8
f0
e7
e4
ea
f2
ef
fa
0b
20
1f
22
0d
fd
e6
eb
f0
eb
e7
f9
f5
12
22
16
00
fa
04
02
ff
ee
f4
f3
f4
fd
05
0c
12
25
36
1c
15
0c
e0
e7
e5
ee
dc
f0
ff
08
1c
0b
04
03
fe
02
fd
f2
eb
01
0d
09
01
04
0a
18
27
15
0c
fd
f8
e6
eb
ec
de
f3
fd
0f
14
09
0a
fe
fb
fc
fc
fd
f1
02
0c
14
02
fb
f9
14
1e
1a
fa
fc
f5
f4
f5
02
02
0c
0e
08
09
00
fb
04
fc
fd
fc
fd
00
0a
0e
14
04
03
01
14
1e
13
06
15
02
ff
fd
06
09
0a
19
07
fe
fd
fe
03
05
fe
fe
05
fe
05
0b
08
05
fc
01
13
12
10
0f
07
0a
0c
f5
f4
ef
f2
fd
fd
f9
fb
ff
ff
fb
fd
01
0a
08
ff
fc
0d
09
15
08
0f
18
14
12
f8
04
ff
f2
eb
e5
e5
e5
e9
ef
f8
fa
fc
fb
02
fc
05
f7
fa
f8
fc
16
0c
0b
14
1a
10
12
0a
09
fe
ee
e4
e7
e9
e5
e7
f5
f7
ff
02
05
fb
01
00
fa
ff
09
03
0e
15
17
21
15
07
0d
05
00
f7
f2
e8
ef
f0
e4
f1
fc
f3
ff
fb
fd
02
fb
fd
fc
00
11
08
12
20
17
18
16
0b
00
f5
f7
ec
e9
eb
f8
ec
e3
f7
02
f8
ff
05
03
02
fe
f1
ef
fc
09
0a
08
0c
13
0e
04
00
f4
f4
f8
f7
f3
fc
fa
f6
fa
00
07
03
fd
02
fd
fe
00
f5
f9
fe
01
fe
08
03
0d
01
00
f2
ef
ff
00
05
03
07
fe
ff
07
0a
08
05
01
fe
fd
04
fe
f9
f9
00
04
fe
ff
09
ff
03
ed
f4
fa
fb
f9
0d
0e
0a
10
0b
19
10
06
03
fe
fc
fd
02
03
f9
08
01
ff
fd
fc
fc
06
04
00
0a
04
07
0e
09
18
10
0b
14
11
09
02
02
fe
04
01
fe
fb
f7
f8
f1
f1
ed
0d
0a
0f
fe
10
0a
0c
09
1e
0f
0a
15
1d
17
10
04
fd
03
00
fd
05
fd
03
fe
e9
e1
dc
eb
f6
07
04
0a
08
04
06
09
06
ff
16
13
0f
08
02
0a
00
00
fb
03
02
01
02
fb
fd
ef
e6
e5
d9
dc
e7
ea
e4
f1
f5
03
fd
fe
fd
f9
fa
ff
03
00
03
fc
00
fe
00
04
02
00
fc
fb
fb
f6
f8
ee
f3
f1
f8
f1
ee
ed
f1
f6
ef
f6
fc
fc
f9
00
ff
03
fc
00
ff
00
05
00
00
fb
fd
fb
ff
fe
00
04
01
fa
f9
fc
fc
fe
f9
fa
fe
fa
01
01
04
02
ff
ff
02
fb
01
fb
02
fe
02
02
00
01
fe
00
03
04
ff
01
01
02
02
02
fc
ff
fd
04
fe
02
01
02
01
00
fe
05
01
04
02
05
01
fe
01
fc
03
fc
03
02
fb
fe
ff
fe
01
fd
04
ff
03
fe
fd
04
fb
00
fd
fe
00
02
ff
01
03
fe
00
fd
fc
fa
fd
ff
00
fc
f9
fd
04
fd
fc
02
fe
ff
fc
fc
01
03
fd
fe
02
05
ff
fb
01
f4
f6
f7
ff
f9
02
03
f9
f9
01
fd
03
01
03
09
03
fb
05
03
04
03
03
05
04
fd
01
06
fd
f9
fe
07
0d
14
15
1a
1b
13
0d
06
0a
06
0a
00
02
03
04
05
fd
00
fc
fd
03
08
09
0b
02
fd
02
17
18
15
0a
15
11
14
ff
fe
01
02
09
f9
fa
01
03
04
ff
00
fc
fc
01
0d
06
fe
02
02
02
0b
07
07
0a
0b
10
05
ff
fc
00
fa
03
fe
ff
05
ff
05
03
04
fa
fc
00
0c
fd
f5
ff
00
f8
fd
f9
fe
0b
16
19
fd
f4
fa
0a
00
fa
f9
02
05
05
ff
05
01
02
fb
fc
03
03
fb
05
07
f9
f6
fd
01
fe
0f
0c
f3
f5
f9
fa
06
00
f7
08
0e
03
ff
ff
fe
fb
f5
f7
fb
07
05
0e
09
06
04
f9
f6
fd
00
f0
ee
ef
f9
ff
ff
02
01
02
0b
ff
fb
01
01
fb
fc
ed
f2
03
0a
15
02
13
0f
02
ee
f7
f3
e7
ee
04
fe
0a
03
03
05
fb
08
01
01
fd
fc
f5
f3
ee
f7
fe
ff
0e
02
07
04
09
12
15
0a
02
0c
15
0d
1b
08
ff
f6
f7
08
01
fe
fd
03
f5
ee
ea
f1
00
03
02
0d
10
11
16
23
2f
16
0d
13
13
0f
0e
02
f6
f6
ed
f8
fa
fb
fe
03
f7
f0
ec
f2
f2
fe
09
0c
11
17
21
30
27
19
15
0b
02
f6
ee
e7
ef
ec
e8
f5
fe
fd
02
00
fb
f5
ee
dd
e7
ec
fd
0c
0a
0e
21
26
1f
1e
13
ff
e8
d5
de
e7
f0
f0
fc
fa
fc
fa
fe
04
fd
fb
ea
cf
c9
d2
dd
ef
02
18
1f
19
15
11
0d
f1
e4
e8
e9
fc
09
02
00
fd
fc
02
fe
04
06
00
f0
ce
ca
c7
c2
da
ec
08
0e
04
08
02
ff
e8
f5
f7
eb
fe
ff
08
06
f5
fd
00
fe
fc
fe
02
f7
df
d8
d1
ba
b8
b9
cf
d4
df
f8
08
00
fa
fd
00
fe
05
03
08
fc
ef
fa
fd
03
00
07
0d
07
fd
ff
e6
d3
c1
b5
b4
b1
d3
f1
01
03
09
09
0d
08
04
06
05
f2
f4
fe
04
03
01
03
10
15
14
0e
fc
f6
e3
df
ca
cf
dc
ef
fb
04
0e
19
18
08
02
0e
09
f7
f9
04
ff
01
00
02
0c
1b
27
1c
0b
15
08
02
ef
e8
ed
f3
f4
fd
0b
1c
11
06
fa
05
ff
f5
f7
02
fb
04
00
02
09
1c
1d
26
1b
16
18
14
00
f9
f5
ea
f9
f7
03
05
03
05
f7
f6
f2
f8
fd
fc
03
fb
fb
03
0b
10
0a
07
0d
06
12
0d
04
fc
fe
fb
fc
00
09
02
0a
fd
f4
ef
f2
fb
f9
fc
03
fd
02
fc
08
03
07
06
07
0d
01
0a
05
04
0b
08
08
0a
07
04
03
f8
f1
ef
fb
01
01
02
ff
ff
fb
01
04
02
06
07
0e
0a
0f
13
09
06
07
fb
01
05
09
00
f5
ff
ff
f7
fa
fc
02
01
fe
ff
05
fb
02
fe
fe
0c
0b
1c
1f
1c
16
19
19
16
0c
0b
0c
03
06
06
07
fd
03
fe
00
fe
01
04
01
fe
05
07
01
01
04
0b
17
13
0f
08
0b
15
05
03
0c
ff
05
01
07
fa
04
fe
fc
01
05
fe
01
fd
03
05
ff
05
03
00
fe
02
01
fe
f8
fd
06
fe
fa
02
fd
fb
00
fe
02
05
ff
03
ff
fe
02
ff
01
01
fc
ff
05
00
05
04
ff
fe
02
ff
ff
00
fd
03
fe
fc
fc
fd
01
fb
02
fd
00
ff
fe
03
fe
02
04
05
06
03
ff
ff
08
01
02
04
01
01
08
00
05
04
00
fc
00
fc
fd
fc
02
fc
03
04
03
03
01
06
0c
0b
0d
12
12
18
10
09
08
10
0c
0b
15
0f
0a
0b
06
05
01
02
fc
02
fc
fc
03
fe
04
02
0a
0f
10
19
14
12
18
14
11
0c
12
0f
12
09
0c
0b
0c
0a
fb
04
04
fc
02
00
03
03
ff
fc
fb
05
09
0d
0c
0c
08
0b
07
09
0b
09
04
ff
07
fe
05
fc
fe
04
01
fc
02
fd
f9
ff
ea
ed
f2
fe
ff
06
0e
13
11
12
00
06
0a
ff
f7
ff
fd
fd
01
01
03
07
05
01
00
05
fc
f5
e9
f1
f3
f7
f6
f5
fe
fc
fd
fd
f5
ee
ee
e1
ed
ea
e5
fd
06
0a
05
ff
03
05
00
ff
f8
f2
f5
fc
00
03
03
0a
08
f5
f4
f1
ee
e9
e7
e5
e2
df
f4
f3
05
0e
09
ff
01
04
fe
fc
f8
e9
f5
04
00
00
10
0d
10
03
ff
ea
e1
e8
ec
da
ee
eb
f2
e8
06
0f
04
03
fd
05
04
00
f8
f5
fc
02
04
02
03
0b
06
02
f5
e5
d7
e8
ed
f1
f5
f1
eb
f5
03
0c
ff
f8
03
fb
01
fc
fc
f7
07
0c
0b
06
03
03
fe
f4
de
db
e5
ee
fb
ff
f6
ef
f8
f5
10
09
f8
fa
ff
fe
05
fe
f8
f3
0a
0f
09
fd
0b
fe
ed
e7
dd
de
de
f3
ef
f2
fb
ef
ff
00
17
0d
f9
fb
03
00
fe
fc
fd
fa
00
08
05
02
03
f5
ff
ee
e5
e6
eb
fc
f6
f3
f6
ff
08
0c
1f
1b
fd
00
01
02
fd
fb
ff
f3
06
07
fe
fe
02
0b
09
08
fc
fb
fd
f3
e1
f5
fe
fc
02
20
26
23
05
fd
01
ff
fd
01
fe
fa
04
0d
09
01
fe
12
1d
0a
fe
fc
04
f9
ed
f8
fa
f8
00
16
19
15
07
fe
00
fc
00
03
02
fa
05
04
0c
06
0a
10
16
0a
0b
05
04
06
fd
03
00
fe
fd
01
09
16
0f
fc
ff
ff
fe
03
fc
fc
0d
0c
06
ff
08
15
24
17
07
0b
12
14
11
04
fb
fd
06
02
12
10
13
05
00
03
04
02
fd
fa
0a
09
07
07
0b
17
2f
1d
0b
fd
0b
0d
14
08
fc
00
01
fe
05
0f
13
03
ff
02
01
fd
f8
f2
fe
0c
10
05
08
18
1c
29
13
02
03
12
0c
04
f7
f7
00
06
15
1c
0b
01
fb
04
03
03
fa
f2
f6
ff
0a
00
02
16
29
26
0a
04
06
04
06
00
f4
03
0c
15
1d
0e
02
01
fc
05
02
06
02
fc
f8
f4
01
fe
07
21
26
20
17
09
12
fa
f2
fa
fe
ff
09
13
18
04
03
01
01
fb
00
02
05
01
f7
f4
f5
fb
17
14
28
25
1b
13
0b
09
07
ff
fc
fe
03
18
13
06
fb
06
fe
fc
fd
fd
fd
ff
f9
ee
ef
fa
00
10
14
20
20
17
15
0d
00
fc
f1
fa
ff
05
09
06
05
00
00
00
03
ff
ff
fa
f1
f0
ed
f7
f0
f1
f7
07
13
13
0b
05
f2
f7
f2
f6
01
06
00
04
04
fe
fb
04
05
05
ff
fb
eb
df
db
ea
e1
de
ed
fe
ff
04
fd
00
f1
fd
f3
f9
f2
fa
04
04
02
fd
fe
03
04
02
01
fa
fd
f4
ef
e2
e3
e7
e1
e5
e9
e9
ee
f3
fc
f6
f5
f7
f6
fc
fe
06
fc
03
ff
03
fe
00
fe
04
fb
ff
01
00
f9
fa
00
03
fa
f9
fb
f5
f9
fa
f9
fb
f8
fd
fb
02
fe
ff
02
fc
ff
fd
fe
03
02
fd
fe
fd
ff
00
00
ff
ff
00
fe
fe
01
02
01
fc
fd
fa
04
fc
fd
02
04
