d0
0a
11
d5
f4
c0
15
09
00
13
fc
bd
e2
c0
c2
0e
11
03
ff
24
1a
d9
fc
f5
c7
fe
bd
17
b5
f4
b3
0b
24
d2
f0
f0
d0
ba
ef
b7
c9
14
cc
15
11
24
fe
df
cc
d4
df
c7
dc
da
1b
30
02
10
f3
13
29
f8
f9
c7
ee
19
34
d6
e6
03
d9
e6
d3
18
c5
0c
e3
d1
0e
d8
d8
1d
24
fd
03
09
12
ce
9b
0d
fd
13
0f
fb
b9
08
f9
0a
13
20
c2
10
08
f8
04
0d
b6
14
07
01
f1
f2
0f
fd
df
d8
fe
0d
f1
04
d7
e5
b8
d7
0e
b2
0d
d1
db
14
b0
c7
1f
10
9f
f9
f1
aa
32
0c
06
ff
f2
d4
ff
81
0d
db
a8
e7
e4
00
1e
1e
10
02
c9
0e
05
eb
f8
d9
fa
3e
1c
f3
2d
f3
fd
09
00
bf
b3
14
a0
16
fb
1d
05
d2
e8
11
8d
d9
1a
ed
e3
e8
e3
05
0f
ff
0a
fe
b2
dd
ce
c0
e8
0d
be
d1
14
02
c5
e0
13
ec
db
df
0f
d5
10
09
b5
24
f3
02
ff
1c
cf
01
d4
1c
db
cc
f5
a7
e6
1a
05
08
f7
f7
fa
e8
0c
18
0b
dc
ff
0b
f3
09
15
ca
0d
fc
ec
42
10
be
33
c7
af
d0
14
05
e3
98
0e
d5
f2
05
0e
e1
e0
e9
0b
c8
00
d5
00
0b
92
19
e0
18
db
bc
0f
c8
f3
e2
c3
0a
0f
00
ca
07
db
f6
df
0b
eb
0d
21
bd
db
a3
10
eb
0e
1a
f6
e7
03
13
f2
df
1a
bb
09
b1
fc
e2
98
ee
24
de
